{
  "version": "1.0",
  "truncation": null,
  "padding": null,
  "added_tokens": [
    {
      "id": 0,
      "content": "[UNK]",
      "single_word": false,
      "lstrip": false,
      "rstrip": false,
      "normalized": false,
      "special": true
    },
    {
      "id": 1,
      "content": "[PAD]",
      "single_word": false,
      "lstrip": false,
      "rstrip": false,
      "normalized": false,
      "special": true
    },
    {
      "id": 2,
      "content": "<EOS>",
      "single_word": false,
      "lstrip": false,
      "rstrip": false,
      "normalized": false,
      "special": true
    }
  ],
  "normalizer": null,
  "pre_tokenizer": {
    "type": "Whitespace"
  },
  "post_processor": {
    "type": "TemplateProcessing",
    "single": [
      {
        "Sequence": {
          "id": "A",
          "type_id": 0
        }
      },
      {
        "SpecialToken": {
          "id": "<EOS>",
          "type_id": 0
        }
      }
    ],
    "pair": [
      {
        "Sequence": {
          "id": "A",
          "type_id": 0
        }
      },
      {
        "Sequence": {
          "id": "B",
          "type_id": 1
        }
      }
    ],
    "special_tokens": {
      "<EOS>": {
        "id": "<EOS>",
        "ids": [
          2
        ],
        "tokens": [
          "<EOS>"
        ]
      }
    }
  },
  "decoder": null,
  "model": {
    "type": "BPE",
    "dropout": null,
    "unk_token": "[UNK]",
    "continuing_subword_prefix": null,
    "end_of_word_suffix": null,
    "fuse_unk": false,
    "byte_fallback": false,
    "ignore_merges": false,
    "vocab": {
      "[UNK]": 0,
      "[PAD]": 1,
      "<EOS>": 2,
      "!": 3,
      "\"": 4,
      "#": 5,
      "$": 6,
      "%": 7,
      "&": 8,
      "'": 9,
      "(": 10,
      ")": 11,
      "*": 12,
      "+": 13,
      ",": 14,
      "-": 15,
      ".": 16,
      "/": 17,
      "0": 18,
      "1": 19,
      "2": 20,
      "3": 21,
      "4": 22,
      "5": 23,
      "6": 24,
      "7": 25,
      "8": 26,
      "9": 27,
      ":": 28,
      ";": 29,
      "<": 30,
      "=": 31,
      ">": 32,
      "?": 33,
      "@": 34,
      "A": 35,
      "B": 36,
      "C": 37,
      "D": 38,
      "E": 39,
      "F": 40,
      "G": 41,
      "H": 42,
      "I": 43,
      "J": 44,
      "K": 45,
      "L": 46,
      "M": 47,
      "N": 48,
      "O": 49,
      "P": 50,
      "Q": 51,
      "R": 52,
      "S": 53,
      "T": 54,
      "U": 55,
      "V": 56,
      "W": 57,
      "X": 58,
      "Y": 59,
      "Z": 60,
      "[": 61,
      "\\": 62,
      "]": 63,
      "^": 64,
      "_": 65,
      "a": 66,
      "b": 67,
      "c": 68,
      "d": 69,
      "e": 70,
      "f": 71,
      "g": 72,
      "h": 73,
      "i": 74,
      "j": 75,
      "k": 76,
      "l": 77,
      "m": 78,
      "n": 79,
      "o": 80,
      "p": 81,
      "q": 82,
      "r": 83,
      "s": 84,
      "t": 85,
      "u": 86,
      "v": 87,
      "w": 88,
      "x": 89,
      "y": 90,
      "z": 91,
      "|": 92,
      "": 93,
      "¡": 94,
      "£": 95,
      "§": 96,
      "°": 97,
      "¿": 98,
      "Á": 99,
      "Å": 100,
      "Ç": 101,
      "É": 102,
      "ß": 103,
      "à": 104,
      "á": 105,
      "â": 106,
      "ã": 107,
      "ä": 108,
      "å": 109,
      "æ": 110,
      "ç": 111,
      "è": 112,
      "é": 113,
      "ë": 114,
      "ì": 115,
      "í": 116,
      "î": 117,
      "ï": 118,
      "ñ": 119,
      "ò": 120,
      "ó": 121,
      "ö": 122,
      "ø": 123,
      "ù": 124,
      "ú": 125,
      "ü": 126,
      "ý": 127,
      "ā": 128,
      "Č": 129,
      "ğ": 130,
      "ī": 131,
      "œ": 132,
      "ş": 133,
      "ū": 134,
      "Ž": 135,
      "ǎ": 136,
      "ǐ": 137,
      "ʿ": 138,
      "˜": 139,
      "В": 140,
      "И": 141,
      "а": 142,
      "б": 143,
      "в": 144,
      "д": 145,
      "е": 146,
      "и": 147,
      "й": 148,
      "к": 149,
      "м": 150,
      "о": 151,
      "р": 152,
      "с": 153,
      "т": 154,
      "у": 155,
      "х": 156,
      "ч": 157,
      "ь": 158,
      "я": 159,
      "і": 160,
      "Ꮝ": 161,
      "Ꮞ": 162,
      "Ꮣ": 163,
      "Ꮥ": 164,
      "Ꮧ": 165,
      "Ꮯ": 166,
      "Ꮳ": 167,
      "Ᏼ": 168,
      "Ẓ": 169,
      "ở": 170,
      "​": 171,
      "‍": 172,
      "–": 173,
      "—": 174,
      "‘": 175,
      "’": 176,
      "“": 177,
      "”": 178,
      "…": 179,
      "₂": 180,
      "₃": 181,
      "€": 182,
      "₱": 183,
      "™": 184,
      "♂": 185,
      "你": 186,
      "好": 187,
      "请": 188,
      "谢": 189,
      "问": 190,
      "️": 191,
      "🌳": 192,
      "🏋": 193,
      "😊": 194,
      "an": 195,
      "er": 196,
      "en": 197,
      "ang": 198,
      "ar": 199,
      "at": 200,
      "in": 201,
      "ak": 202,
      "em": 203,
      "ah": 204,
      "men": 205,
      "se": 206,
      "un": 207,
      "di": 208,
      "ya": 209,
      "al": 210,
      "am": 211,
      "tu": 212,
      "ber": 213,
      "kan": 214,
      "as": 215,
      "da": 216,
      "ti": 217,
      "yang": 218,
      "ka": 219,
      "mem": 220,
      "dan": 221,
      "el": 222,
      "per": 223,
      "bu": 224,
      "ke": 225,
      "ap": 226,
      "it": 227,
      "ba": 228,
      "eng": 229,
      "bi": 230,
      "meng": 231,
      "or": 232,
      "mer": 233,
      "ik": 234,
      "nya": 235,
      "ing": 236,
      "ter": 237,
      "sa": 238,
      "eka": 239,
      "ga": 240,
      "ja": 241,
      "akan": 242,
      "ari": 243,
      "li": 244,
      "mereka": 245,
      "deng": 246,
      "ita": 247,
      "orang": 248,
      "si": 249,
      "gi": 250,
      "ama": 251,
      "la": 252,
      "tuk": 253,
      "An": 254,
      "ada": 255,
      "kita": 256,
      "ung": 257,
      "ara": 258,
      "Anda": 259,
      "le": 260,
      "untuk": 261,
      "su": 262,
      "il": 263,
      "dengan": 264,
      "pat": 265,
      "be": 266,
      "ban": 267,
      "ce": 268,
      "atu": 269,
      "bah": 270,
      "apa": 271,
      "ob": 272,
      "ata": 273,
      "on": 274,
      "ir": 275,
      "emu": 276,
      "asa": 277,
      "Ali": 278,
      "anya": 279,
      "Alice": 280,
      "Bob": 281,
      "ju": 282,
      "ini": 283,
      "dak": 284,
      "ent": 285,
      "im": 286,
      "du": 287,
      "perti": 288,
      "ku": 289,
      "wa": 290,
      "lu": 291,
      "asi": 292,
      "mel": 293,
      "itu": 294,
      "is": 295,
      "tidak": 296,
      "um": 297,
      "dal": 298,
      "seperti": 299,
      "bih": 300,
      "tem": 301,
      "lebih": 302,
      "hat": 303,
      "aj": 304,
      "ek": 305,
      "ana": 306,
      "ri": 307,
      "et": 308,
      "atau": 309,
      "sama": 310,
      "us": 311,
      "aku": 312,
      "ahu": 313,
      "lain": 314,
      "dari": 315,
      "jadi": 316,
      "sebu": 317,
      "dia": 318,
      "bar": 319,
      "cara": 320,
      "elaj": 321,
      "ma": 322,
      "tent": 323,
      "saya": 324,
      "ali": 325,
      "pada": 326,
      "hal": 327,
      "pu": 328,
      "ko": 329,
      "tentang": 330,
      "sen": 331,
      "membu": 332,
      "dapat": 333,
      "yak": 334,
      "bantu": 335,
      "mu": 336,
      "pen": 337,
      "kar": 338,
      "pa": 339,
      "ta": 340,
      "bagi": 341,
      "ker": 342,
      "ami": 343,
      "baik": 344,
      "dang": 345,
      "uh": 346,
      "baga": 347,
      "dalam": 348,
      "meny": 349,
      "diri": 350,
      "lah": 351,
      "membantu": 352,
      "annya": 353,
      "ia": 354,
      "tan": 355,
      "alu": 356,
      "menc": 357,
      "semu": 358,
      "tanya": 359,
      "hari": 360,
      "es": 361,
      "bisa": 362,
      "suatu": 363,
      "membuat": 364,
      "sebut": 365,
      "kin": 366,
      "main": 367,
      "adi": 368,
      "banyak": 369,
      "ungkin": 370,
      "bahwa": 371,
      "pun": 372,
      "kel": 373,
      "angan": 374,
      "ben": 375,
      "hi": 376,
      "pan": 377,
      "semua": 378,
      "tika": 379,
      "dah": 380,
      "saat": 381,
      "har": 382,
      "mas": 383,
      "akukan": 384,
      "tiap": 385,
      "gun": 386,
      "de": 387,
      "api": 388,
      "hu": 389,
      "dengar": 390,
      "ingin": 391,
      "menjadi": 392,
      "juga": 393,
      "ena": 394,
      "ika": 395,
      "aman": 396,
      "teman": 397,
      "po": 398,
      "inya": 399,
      "bang": 400,
      "aya": 401,
      "eg": 402,
      "ati": 403,
      "sel": 404,
      "imana": 405,
      "ur": 406,
      "bel": 407,
      "ikir": 408,
      "angat": 409,
      "ikan": 410,
      "kali": 411,
      "setiap": 412,
      "tahu": 413,
      "om": 414,
      "elajar": 415,
      "Se": 416,
      "kah": 417,
      "mungkin": 418,
      "hidu": 419,
      "karena": 420,
      "ketika": 421,
      "gunakan": 422,
      "seorang": 423,
      "sesuatu": 424,
      "jal": 425,
      "kec": 426,
      "anak": 427,
      "tempat": 428,
      "satu": 429,
      "alah": 430,
      "pak": 431,
      "gal": 432,
      "amun": 433,
      "iki": 434,
      "man": 435,
      "merasa": 436,
      "sar": 437,
      "nama": 438,
      "berapa": 439,
      "In": 440,
      "Mer": 441,
      "uk": 442,
      "baru": 443,
      "pe": 444,
      "bil": 445,
      "tet": 446,
      "Jadi": 447,
      "atan": 448,
      "ai": 449,
      "peng": 450,
      "beda": 451,
      "adal": 452,
      "Dan": 453,
      "adalah": 454,
      "ihat": 455,
      "belajar": 456,
      "kadang": 457,
      "pem": 458,
      "jalan": 459,
      "kecil": 460,
      "elah": 461,
      "ra": 462,
      "Mereka": 463,
      "bernama": 464,
      "menj": 465,
      "enting": 466,
      "Ya": 467,
      "cer": 468,
      "menggunakan": 469,
      "wan": 470,
      "neg": 471,
      "entu": 472,
      "mengh": 473,
      "pi": 474,
      "Per": 475,
      "besar": 476,
      "ol": 477,
      "sem": 478,
      "ut": 479,
      "iliki": 480,
      "ting": 481,
      "bertanya": 482,
      "jika": 483,
      "bagai": 484,
      "penting": 485,
      "bagaimana": 486,
      "rum": 487,
      "lai": 488,
      "melihat": 489,
      "Ba": 490,
      "sendiri": 491,
      "member": 492,
      "makan": 493,
      "bermain": 494,
      "engan": 495,
      "memiliki": 496,
      "Dengan": 497,
      "kem": 498,
      "ingat": 499,
      "ant": 500,
      "tersebut": 501,
      "pikir": 502,
      "Ke": 503,
      "kepada": 504,
      "emukan": 505,
      "benar": 506,
      "saja": 507,
      "hidup": 508,
      "ro": 509,
      "buh": 510,
      "war": 511,
      "asih": 512,
      "Dia": 513,
      "ungan": 514,
      "melakukan": 515,
      "belum": 516,
      "memper": 517,
      "ran": 518,
      "ong": 519,
      "arah": 520,
      "akh": 521,
      "menja": 522,
      "ki": 523,
      "sangat": 524,
      "Itu": 525,
      "bersama": 526,
      "beberapa": 527,
      "indah": 528,
      "telah": 529,
      "memp": 530,
      "kata": 531,
      "na": 532,
      "Su": 533,
      "amu": 534,
      "berbeda": 535,
      "ahami": 536,
      "sekali": 537,
      "bat": 538,
      "menemukan": 539,
      "my": 540,
      "mana": 541,
      "disebut": 542,
      "Ben": 543,
      "rumah": 544,
      "sebuah": 545,
      "tus": 546,
      "Ter": 547,
      "elas": 548,
      "mendengar": 549,
      "kerja": 550,
      "memu": 551,
      "uar": 552,
      "he": 553,
      "ambil": 554,
      "tah": 555,
      "aat": 556,
      "elajari": 557,
      "Namun": 558,
      "terjadi": 559,
      "tr": 560,
      "seseorang": 561,
      "wak": 562,
      "ken": 563,
      "itas": 564,
      "jak": 565,
      "ny": 566,
      "akah": 567,
      "re": 568,
      "dun": 569,
      "hati": 570,
      "memba": 571,
      "Saya": 572,
      "gam": 573,
      "bahkan": 574,
      "me": 575,
      "kit": 576,
      "ser": 577,
      "unya": 578,
      "kom": 579,
      "ip": 580,
      "kal": 581,
      "negara": 582,
      "han": 583,
      ".\"": 584,
      "lakukan": 585,
      "arik": 586,
      "enang": 587,
      "angg": 588,
      "asti": 589,
      "mainan": 590,
      "tetap": 591,
      "memahami": 592,
      "bur": 593,
      "nah": 594,
      "lan": 595,
      "berbagi": 596,
      "sebelum": 597,
      "keluar": 598,
      "Suatu": 599,
      "kami": 600,
      "bukan": 601,
      "gitu": 602,
      "sia": 603,
      "luar": 604,
      "aran": 605,
      "harus": 606,
      "dek": 607,
      "hanya": 608,
      "to": 609,
      "secara": 610,
      "?\"": 611,
      "cu": 612,
      "kkan": 613,
      "oba": 614,
      "leh": 615,
      "dian": 616,
      "sehat": 617,
      "unju": 618,
      "terkadang": 619,
      "waktu": 620,
      "penuh": 621,
      "mempelajari": 622,
      "aw": 623,
      "mulai": 624,
      "lang": 625,
      "tak": 626,
      "kon": 627,
      "selalu": 628,
      "bagian": 629,
      "erti": 630,
      "hing": 631,
      "elaskan": 632,
      "kat": 633,
      "amp": 634,
      "ima": 635,
      "Tentu": 636,
      "tinggal": 637,
      "begitu": 638,
      "Saat": 639,
      "oleh": 640,
      "Tim": 641,
      "te": 642,
      "lalu": 643,
      "menjelaskan": 644,
      "aja": 645,
      "bicara": 646,
      "arti": 647,
      "ag": 648,
      "bangun": 649,
      "sej": 650,
      "lit": 651,
      "eski": 652,
      "menarik": 653,
      "emudian": 654,
      "kamu": 655,
      "alam": 656,
      "Hai": 657,
      "agi": 658,
      "kuat": 659,
      "senang": 660,
      "hingga": 661,
      "kasih": 662,
      "gus": 663,
      "biasa": 664,
      "menye": 665,
      "bert": 666,
      "bekerja": 667,
      "osi": 668,
      "usia": 669,
      "hkan": 670,
      "yangkan": 671,
      "Sek": 672,
      "alnya": 673,
      "ok": 674,
      "arang": 675,
      "takan": 676,
      "but": 677,
      "ubah": 678,
      "duk": 679,
      "perlu": 680,
      "gu": 681,
      "menya": 682,
      "makanan": 683,
      "bahagi": 684,
      "aha": 685,
      "memberi": 686,
      "Oh": 687,
      "hub": 688,
      "orm": 689,
      "bahagia": 690,
      "berbagai": 691,
      "menunju": 692,
      "etahu": 693,
      "Sekarang": 694,
      "ca": 695,
      "isti": 696,
      "Ini": 697,
      "jauh": 698,
      "dua": 699,
      "Timmy": 700,
      "inta": 701,
      "asan": 702,
      "lagi": 703,
      "iptakan": 704,
      "Ti": 705,
      "Meng": 706,
      "sus": 707,
      "wab": 708,
      "cerita": 709,
      "dekat": 710,
      "bagus": 711,
      "Sel": 712,
      "sana": 713,
      "tuskan": 714,
      "harga": 715,
      "memutuskan": 716,
      "mo": 717,
      "hewan": 718,
      "menunjukkan": 719,
      "dat": 720,
      "unik": 721,
      "warna": 722,
      "menciptakan": 723,
      "berbicara": 724,
      "keluarga": 725,
      "Tapi": 726,
      "akhir": 727,
      "air": 728,
      "dunia": 729,
      "Apa": 730,
      "daya": 731,
      "enangkan": 732,
      "Te": 733,
      "yar": 734,
      "asaan": 735,
      "Benny": 736,
      "ily": 737,
      "uang": 738,
      "apakah": 739,
      "berarti": 740,
      "tum": 741,
      "gambar": 742,
      "husus": 743,
      "khusus": 744,
      "mencoba": 745,
      "tangan": 746,
      "!\"": 747,
      "masalah": 748,
      "sedi": 749,
      "Ber": 750,
      "adap": 751,
      "eskipun": 752,
      "kota": 753,
      "anti": 754,
      "tanpa": 755,
      "masa": 756,
      "ger": 757,
      "kala": 758,
      "punya": 759,
      "Ing": 760,
      "Sama": 761,
      "sekit": 762,
      "dengarannya": 763,
      "sekitar": 764,
      "perjalan": 765,
      "para": 766,
      "ni": 767,
      "menjaga": 768,
      "rasa": 769,
      "sulit": 770,
      "Baga": 771,
      "kemudian": 772,
      "sp": 773,
      "astikan": 774,
      "ib": 775,
      "akal": 776,
      "Lily": 777,
      "Hal": 778,
      "tuhkan": 779,
      "akat": 780,
      "ind": 781,
      "ili": 782,
      "elajah": 783,
      "perc": 784,
      "aki": 785,
      "mengetahu": 786,
      "tahun": 787,
      "kap": 788,
      "ompo": 789,
      "salah": 790,
      "mengapa": 791,
      "kannya": 792,
      "suka": 793,
      "mendapat": 794,
      "perasaan": 795,
      "unj": 796,
      "Bagaimana": 797,
      "tanyaan": 798,
      "antara": 799,
      "ompok": 800,
      "sejarah": 801,
      "tumbuh": 802,
      "pert": 803,
      "sebagai": 804,
      "membangun": 805,
      "isalnya": 806,
      "bali": 807,
      "menyenangkan": 808,
      "karang": 809,
      "terh": 810,
      "ahulu": 811,
      "perjalanan": 812,
      "bun": 813,
      "pergi": 814,
      "Apak": 815,
      "Apakah": 816,
      "Di": 817,
      "alui": 818,
      "pul": 819,
      "Tepat": 820,
      "bijak": 821,
      "sekarang": 822,
      "mengetahui": 823,
      "jut": 824,
      "namun": 825,
      "memastikan": 826,
      "buku": 827,
      "berpikir": 828,
      "kelompok": 829,
      "ay": 830,
      "sehingga": 831,
      "masuk": 832,
      "jang": 833,
      "seko": 834,
      "der": 835,
      "mak": 836,
      "lem": 837,
      "terhadap": 838,
      "Misalnya": 839,
      "tapi": 840,
      "pel": 841,
      "hidupan": 842,
      "ampak": 843,
      "bal": 844,
      "luk": 845,
      "sekolah": 846,
      "ide": 847,
      "Tidak": 848,
      "Pada": 849,
      "ling": 850,
      "pernah": 851,
      "mengaj": 852,
      "ci": 853,
      "kh": 854,
      "tif": 855,
      "awat": 856,
      "kehidupan": 857,
      "mengambil": 858,
      "selama": 859,
      "ain": 860,
      "sal": 861,
      "hon": 862,
      "barang": 863,
      "lama": 864,
      "terus": 865,
      "Bu": 866,
      "lihat": 867,
      "pro": 868,
      "membawa": 869,
      "bkan": 870,
      "kembali": 871,
      "yarakat": 872,
      "ow": 873,
      "ian": 874,
      "mat": 875,
      "pin": 876,
      "mengerti": 877,
      "mengat": 878,
      "arkan": 879,
      "ampil": 880,
      "percaya": 881,
      "bentuk": 882,
      "menyadari": 883,
      "ram": 884,
      "lainnya": 885,
      "setelah": 886,
      "ungi": 887,
      "menjawab": 888,
      "melalui": 889,
      "manusia": 890,
      "ly": 891,
      "akhluk": 892,
      "asil": 893,
      "lur": 894,
      "menjelajah": 895,
      "membutuhkan": 896,
      "mencari": 897,
      "pikiran": 898,
      "olo": 899,
      "pohon": 900,
      "bis": 901,
      "saha": 902,
      "dew": 903,
      "tentu": 904,
      "bo": 905,
      "sudah": 906,
      "makhluk": 907,
      "segal": 908,
      "tual": 909,
      "isah": 910,
      "tua": 911,
      "tubuh": 912,
      "masyarakat": 913,
      "selur": 914,
      "seluruh": 915,
      "Terima": 916,
      "mon": 917,
      "str": 918,
      "jen": 919,
      "masing": 920,
      "mengingat": 921,
      "budaya": 922,
      "yum": 923,
      "Ketika": 924,
      "sedang": 925,
      "ille": 926,
      "lingk": 927,
      "eri": 928,
      "tetapi": 929,
      "berl": 930,
      "dewasa": 931,
      "unjungi": 932,
      "mati": 933,
      "asaran": 934,
      "ilih": 935,
      "ani": 936,
      "senyum": 937,
      "dis": 938,
      "Ingat": 939,
      "ville": 940,
      "burung": 941,
      "unitas": 942,
      "Be": 943,
      "dara": 944,
      "kenal": 945,
      "av": 946,
      "das": 947,
      "pas": 948,
      "rak": 949,
      "melin": 950,
      "temannya": 951,
      "memilih": 952,
      "Seperti": 953,
      "Kedengarannya": 954,
      "Pernah": 955,
      "agar": 956,
      "komunitas": 957,
      "Pernahkah": 958,
      "bersi": 959,
      "datang": 960,
      "rang": 961,
      "pek": 962,
      "lau": 963,
      "car": 964,
      "ikmati": 965,
      "lo": 966,
      "ampu": 967,
      "lingkungan": 968,
      "mendengarkan": 969,
      "siapa": 970,
      "sud": 971,
      "bing": 972,
      "menu": 973,
      "Bayangkan": 974,
      "iku": 975,
      "nyaman": 976,
      "erja": 977,
      "memer": 978,
      "mengunjungi": 979,
      "lis": 980,
      "wah": 981,
      "jenis": 982,
      "mudah": 983,
      "ahan": 984,
      "bertemu": 985,
      "tersenyum": 986,
      "dir": 987,
      "keras": 988,
      "sambil": 989,
      "mening": 990,
      "Kita": 991,
      "masih": 992,
      "bahan": 993,
      "petual": 994,
      "sebelumnya": 995,
      "mengen": 996,
      "adapi": 997,
      "Dahulu": 998,
      "maksud": 999,
      "Ada": 1000,
      "bin": 1001,
      "bak": 1002,
      "apkan": 1003,
      "panjang": 1004,
      "tanah": 1005,
      "apan": 1006,
      "kup": 1007,
      "hubungan": 1008,
      "dar": 1009,
      "bangkan": 1010,
      "akut": 1011,
      "tas": 1012,
      "sis": 1013,
      "lembut": 1014,
      "ampilan": 1015,
      "meskipun": 1016,
      "hatikan": 1017,
      "bung": 1018,
      "tuju": 1019,
      "atas": 1020,
      "hutan": 1021,
      "semangat": 1022,
      "ajaib": 1023,
      "baikan": 1024,
      "ru": 1025,
      "menjelajahi": 1026,
      "hubung": 1027,
      "bahasa": 1028,
      "rah": 1029,
      "sim": 1030,
      "zin": 1031,
      "ikirkan": 1032,
      "gem": 1033,
      "laki": 1034,
      "tasi": 1035,
      "ener": 1036,
      "berjalan": 1037,
      "ologi": 1038,
      "keren": 1039,
      "pal": 1040,
      "berh": 1041,
      "Wow": 1042,
      "cukup": 1043,
      "tik": 1044,
      "mempunya": 1045,
      "bet": 1046,
      "mempunyai": 1047,
      "negeri": 1048,
      "pili": 1049,
      "tek": 1050,
      "yah": 1051,
      "uc": 1052,
      "terlalu": 1053,
      "sik": 1054,
      "mendapatkan": 1055,
      "Jika": 1056,
      "membi": 1057,
      "memberikan": 1058,
      "fo": 1059,
      "kisah": 1060,
      "Sam": 1061,
      "hargai": 1062,
      "tinggi": 1063,
      "onal": 1064,
      "alih": 1065,
      "menghadapi": 1066,
      "sayang": 1067,
      "berkata": 1068,
      "bijaksana": 1069,
      "ses": 1070,
      "Tu": 1071,
      "benarnya": 1072,
      "menikmati": 1073,
      "sedih": 1074,
      "lin": 1075,
      "alaman": 1076,
      "taman": 1077,
      "dilakukan": 1078,
      "?”": 1079,
      "perang": 1080,
      "isi": 1081,
      "tertentu": 1082,
      "so": 1083,
      "bedaan": 1084,
      "atih": 1085,
      "enti": 1086,
      "sum": 1087,
      "tampak": 1088,
      "memikirkan": 1089,
      "dungi": 1090,
      "iring": 1091,
      "tor": 1092,
      "memperhatikan": 1093,
      "Terkadang": 1094,
      "ji": 1095,
      "ramah": 1096,
      "menak": 1097,
      "Pen": 1098,
      "aturan": 1099,
      "Mungkin": 1100,
      "buat": 1101,
      "Amer": 1102,
      "Bis": 1103,
      "..": 1104,
      "dur": 1105,
      "desa": 1106,
      "perbedaan": 1107,
      "cerah": 1108,
      "bawah": 1109,
      "cepat": 1110,
      "ot": 1111,
      "keter": 1112,
      "semuanya": 1113,
      "pertanyaan": 1114,
      "segala": 1115,
      "hiduplah": 1116,
      "menakju": 1117,
      "Amerika": 1118,
      "bantuan": 1119,
      "pengalaman": 1120,
      "Bisakah": 1121,
      "cinta": 1122,
      "pakai": 1123,
      "min": 1124,
      "mener": 1125,
      "situ": 1126,
      "hangat": 1127,
      "adil": 1128,
      "duduk": 1129,
      "ikuti": 1130,
      "tur": 1131,
      "petualangan": 1132,
      "batan": 1133,
      "tiv": 1134,
      "jah": 1135,
      "anjut": 1136,
      "up": 1137,
      "menakjubkan": 1138,
      "awatir": 1139,
      "Orang": 1140,
      "ding": 1141,
      "urut": 1142,
      "khawatir": 1143,
      "upa": 1144,
      "melindungi": 1145,
      "Ma": 1146,
      "Mari": 1147,
      "ris": 1148,
      "enc": 1149,
      "betapa": 1150,
      "mobil": 1151,
      "ekor": 1152,
      "pekerja": 1153,
      "wi": 1154,
      "mengatakan": 1155,
      "zat": 1156,
      "alami": 1157,
      "osial": 1158,
      "cam": 1159,
      "asanya": 1160,
      "penasaran": 1161,
      "pri": 1162,
      "zinkan": 1163,
      "Mengapa": 1164,
      "pai": 1165,
      "tang": 1166,
      "Sejak": 1167,
      "orit": 1168,
      "keku": 1169,
      "Bersama": 1170,
      "gur": 1171,
      "fav": 1172,
      "emosi": 1173,
      "favorit": 1174,
      "bira": 1175,
      "sering": 1176,
      "muda": 1177,
      "ahkan": 1178,
      "ubahan": 1179,
      "istime": 1180,
      "pelajar": 1181,
      "bayangkan": 1182,
      "menghargai": 1183,
      "san": 1184,
      "empat": 1185,
      "enak": 1186,
      "tiba": 1187,
      "Setiap": 1188,
      "bunga": 1189,
      "kepu": 1190,
      "terlihat": 1191,
      "pilihan": 1192,
      "sebenarnya": 1193,
      "tahan": 1194,
      "alat": 1195,
      "yi": 1196,
      "pakaian": 1197,
      "pet": 1198,
      "batu": 1199,
      "asal": 1200,
      "balik": 1201,
      "Beberapa": 1202,
      "kum": 1203,
      "aruh": 1204,
      "sin": 1205,
      "kebaikan": 1206,
      "dirinya": 1207,
      "gembira": 1208,
      "Har": 1209,
      "tidur": 1210,
      "kus": 1211,
      "mengikuti": 1212,
      "pelajaran": 1213,
      "unikasi": 1214,
      "tusan": 1215,
      "saling": 1216,
      "berharga": 1217,
      "abis": 1218,
      "sung": 1219,
      "ele": 1220,
      "ibu": 1221,
      "menga": 1222,
      "Un": 1223,
      "perubahan": 1224,
      "Mem": 1225,
      "tar": 1226,
      "Meskipun": 1227,
      "duli": 1228,
      "istimewa": 1229,
      "tawa": 1230,
      "buruk": 1231,
      "dor": 1232,
      "indakan": 1233,
      "yakin": 1234,
      "peduli": 1235,
      "keputusan": 1236,
      "au": 1237,
      "Bel": 1238,
      "vi": 1239,
      "sedikit": 1240,
      "malam": 1241,
      "tinya": 1242,
      "daripada": 1243,
      "Set": 1244,
      "Mengerti": 1245,
      "sosial": 1246,
      "Setelah": 1247,
      "lezat": 1248,
      "seekor": 1249,
      "Pertanyaan": 1250,
      "gabung": 1251,
      "Ibu": 1252,
      "jam": 1253,
      "aan": 1254,
      "jan": 1255,
      "usaha": 1256,
      "takut": 1257,
      "nanti": 1258,
      "enek": 1259,
      "form": 1260,
      "lusi": 1261,
      "impin": 1262,
      "empu": 1263,
      "menan": 1264,
      "yu": 1265,
      "sahabat": 1266,
      "horm": 1267,
      "otak": 1268,
      "unga": 1269,
      "tepat": 1270,
      "keterampilan": 1271,
      "sabar": 1272,
      "banding": 1273,
      "awan": 1274,
      "ver": 1275,
      "selam": 1276,
      "tindakan": 1277,
      "tantangan": 1278,
      "semak": 1279,
      "entara": 1280,
      "resi": 1281,
      "benda": 1282,
      "mengangg": 1283,
      "eksp": 1284,
      "lik": 1285,
      "gel": 1286,
      "hak": 1287,
      "bola": 1288,
      "situasi": 1289,
      "ungai": 1290,
      "co": 1291,
      "mari": 1292,
      "permainan": 1293,
      "komunikasi": 1294,
      "aksi": 1295,
      "ilmu": 1296,
      "con": 1297,
      "kre": 1298,
      "Men": 1299,
      "abiskan": 1300,
      "yakan": 1301,
      "itakan": 1302,
      "bandingkan": 1303,
      "tanaman": 1304,
      "unggu": 1305,
      "Selain": 1306,
      "tong": 1307,
      "Max": 1308,
      "formasi": 1309,
      "ane": 1310,
      "Dr": 1311,
      "menurut": 1312,
      "ch": 1313,
      "Tahu": 1314,
      "Tahukah": 1315,
      "sumber": 1316,
      "Kami": 1317,
      "membaca": 1318,
      "Untuk": 1319,
      "posi": 1320,
      "memulai": 1321,
      "danya": 1322,
      "tim": 1323,
      "kapan": 1324,
      "depan": 1325,
      "dorong": 1326,
      "Al": 1327,
      "suara": 1328,
      "inci": 1329,
      "Bukan": 1330,
      "jar": 1331,
      "Benar": 1332,
      "carakan": 1333,
      "psik": 1334,
      "sam": 1335,
      "buah": 1336,
      "gerak": 1337,
      "ton": 1338,
      "menyu": 1339,
      "tradi": 1340,
      "kekuatan": 1341,
      "berasal": 1342,
      "Em": 1343,
      "mata": 1344,
      "sungai": 1345,
      "dama": 1346,
      "gas": 1347,
      "pes": 1348,
      "mengubah": 1349,
      "pentingnya": 1350,
      "ew": 1351,
      "faat": 1352,
      "menyebut": 1353,
      "pah": 1354,
      "kai": 1355,
      "inter": 1356,
      "pulkan": 1357,
      "jawab": 1358,
      ".”": 1359,
      "mengajari": 1360,
      "cang": 1361,
      "seni": 1362,
      "toh": 1363,
      "ed": 1364,
      "ingatlah": 1365,
      "fokus": 1366,
      "tradisi": 1367,
      "bagikan": 1368,
      "id": 1369,
      "sehari": 1370,
      "iti": 1371,
      "ten": 1372,
      "upakan": 1373,
      "Sammy": 1374,
      "atif": 1375,
      "aneh": 1376,
      "ikiran": 1377,
      "memungkin": 1378,
      "tai": 1379,
      "meminta": 1380,
      "tivitas": 1381,
      "perempu": 1382,
      "menghabiskan": 1383,
      "Baik": 1384,
      "membel": 1385,
      "tri": 1386,
      "peril": 1387,
      "udara": 1388,
      "Kemudian": 1389,
      "kun": 1390,
      "Bukankah": 1391,
      "mengum": 1392,
      "semakin": 1393,
      "mengalami": 1394,
      "izinkan": 1395,
      "spir": 1396,
      "kedengarannya": 1397,
      "mengel": 1398,
      "mony": 1399,
      "iling": 1400,
      "sepanjang": 1401,
      "apai": 1402,
      "utama": 1403,
      "dibandingkan": 1404,
      "meman": 1405,
      "memas": 1406,
      "akhirnya": 1407,
      "memungkinkan": 1408,
      "kak": 1409,
      "sahabatan": 1410,
      "contoh": 1411,
      "tunya": 1412,
      "ul": 1413,
      "membentuk": 1414,
      "omong": 1415,
      "sak": 1416,
      "langsung": 1417,
      "ahari": 1418,
      "lukan": 1419,
      "pekerjaan": 1420,
      "perempuan": 1421,
      "gomong": 1422,
      "aktivitas": 1423,
      "berwarna": 1424,
      "buka": 1425,
      "Mel": 1426,
      "informasi": 1427,
      "berlatih": 1428,
      "tahukah": 1429,
      "meninggal": 1430,
      "ho": 1431,
      "berkem": 1432,
      "sini": 1433,
      "berada": 1434,
      "menghorm": 1435,
      "jelas": 1436,
      "ruang": 1437,
      "bon": 1438,
      "dem": 1439,
      "mm": 1440,
      "positif": 1441,
      "layah": 1442,
      "jangan": 1443,
      "od": 1444,
      "berubah": 1445,
      "terima": 1446,
      "inginkan": 1447,
      "memerlukan": 1448,
      "ambah": 1449,
      "perilaku": 1450,
      "berani": 1451,
      "adat": 1452,
      "sesu": 1453,
      "persahabatan": 1454,
      "menghormati": 1455,
      "mengumpulkan": 1456,
      "mun": 1457,
      "tel": 1458,
      "eta": 1459,
      "babkan": 1460,
      "menggambar": 1461,
      "sementara": 1462,
      "mengem": 1463,
      "pelajari": 1464,
      "menulis": 1465,
      "paling": 1466,
      "sulitan": 1467,
      "pertama": 1468,
      "kegembira": 1469,
      "kesulitan": 1470,
      "matahari": 1471,
      "Wah": 1472,
      "coba": 1473,
      "ket": 1474,
      "hormat": 1475,
      "ih": 1476,
      "mi": 1477,
      "mau": 1478,
      "membicarakan": 1479,
      "ota": 1480,
      "warni": 1481,
      "wilayah": 1482,
      "ira": 1483,
      "Me": 1484,
      "undang": 1485,
      "sakit": 1486,
      "kegembiraan": 1487,
      "pur": 1488,
      "manfaat": 1489,
      "mena": 1490,
      "antar": 1491,
      "Kar": 1492,
      "asakan": 1493,
      "sep": 1494,
      "anjutnya": 1495,
      "'.": 1496,
      "Sal": 1497,
      "kelas": 1498,
      "pemimpin": 1499,
      "Ro": 1500,
      "Semu": 1501,
      "ks": 1502,
      "kur": 1503,
      "ibunya": 1504,
      "guru": 1505,
      "bul": 1506,
      "ingan": 1507,
      ",\"": 1508,
      "gris": 1509,
      "dahulu": 1510,
      "dukung": 1511,
      "sampai": 1512,
      "biasanya": 1513,
      "emuan": 1514,
      "memperlakukan": 1515,
      "dikenal": 1516,
      "Inggris": 1517,
      "tama": 1518,
      "bergabung": 1519,
      "lam": 1520,
      "antung": 1521,
      "Jami": 1522,
      "terbang": 1523,
      "merupakan": 1524,
      "mencapai": 1525,
      "mencer": 1526,
      "mendorong": 1527,
      "Luc": 1528,
      "mil": 1529,
      "perhati": 1530,
      "tertawa": 1531,
      "laut": 1532,
      "bersikap": 1533,
      "tekn": 1534,
      "keh": 1535,
      "Jamie": 1536,
      "kalau": 1537,
      "meningkat": 1538,
      "Lucy": 1539,
      "pertim": 1540,
      "--": 1541,
      "itulah": 1542,
      "menyak": 1543,
      "yur": 1544,
      "gadis": 1545,
      "mengingatkan": 1546,
      "Harmony": 1547,
      "Jo": 1548,
      "istirah": 1549,
      "gan": 1550,
      "orasi": 1551,
      "istirahat": 1552,
      "dok": 1553,
      "kesalah": 1554,
      "ajin": 1555,
      "aruhi": 1556,
      "merawat": 1557,
      "ec": 1558,
      "terbaik": 1559,
      "musim": 1560,
      "ayah": 1561,
      "kumpul": 1562,
      "encana": 1563,
      "Tak": 1564,
      "peran": 1565,
      "asilkan": 1566,
      "berkembang": 1567,
      "ganya": 1568,
      "do": 1569,
      "keliling": 1570,
      "sinar": 1571,
      "Lalu": 1572,
      "indi": 1573,
      "terhubung": 1574,
      "sehatan": 1575,
      "game": 1576,
      "ore": 1577,
      "perhatian": 1578,
      "dampak": 1579,
      "berkumpul": 1580,
      "mus": 1581,
      "Af": 1582,
      "ambahkan": 1583,
      "pertimbangkan": 1584,
      "Semua": 1585,
      "saikan": 1586,
      "Akh": 1587,
      "ha": 1588,
      "Akhir": 1589,
      "bangan": 1590,
      "olah": 1591,
      "ikat": 1592,
      "tugas": 1593,
      "tumbuhan": 1594,
      "bingung": 1595,
      "tujuan": 1596,
      "Hmm": 1597,
      "Sarah": 1598,
      "boleh": 1599,
      "tra": 1600,
      "angga": 1601,
      "pasti": 1602,
      "menyebabkan": 1603,
      "So": 1604,
      "lanjut": 1605,
      "Tuan": 1606,
      "membuatnya": 1607,
      "\".": 1608,
      "termasuk": 1609,
      "nyata": 1610,
      "Sally": 1611,
      "energi": 1612,
      "kese": 1613,
      "toko": 1614,
      "angi": 1615,
      "umi": 1616,
      "belak": 1617,
      "menyukai": 1618,
      "diper": 1619,
      "bergerak": 1620,
      "terbuka": 1621,
      "kulit": 1622,
      "kelinci": 1623,
      "res": 1624,
      "bersemangat": 1625,
      "kesehatan": 1626,
      "menghasilkan": 1627,
      "Mas": 1628,
      "nap": 1629,
      "sebagian": 1630,
      "menyebar": 1631,
      "mengatasi": 1632,
      "inspir": 1633,
      "bahagiaan": 1634,
      "mbing": 1635,
      "wat": 1636,
      "pola": 1637,
      "konf": 1638,
      "ck": 1639,
      "gar": 1640,
      "jau": 1641,
      "mengangguk": 1642,
      "sur": 1643,
      "Nah": 1644,
      "memban": 1645,
      "belakang": 1646,
      "siap": 1647,
      "Baiklah": 1648,
      "iman": 1649,
      "boneka": 1650,
      "Ka": 1651,
      "mengeksp": 1652,
      "nilai": 1653,
      "Harmonyville": 1654,
      "kebahagiaan": 1655,
      "atihan": 1656,
      "seger": 1657,
      "atur": 1658,
      "meninggalkan": 1659,
      "ori": 1660,
      "baliknya": 1661,
      "Ar": 1662,
      "...": 1663,
      "segera": 1664,
      "ikut": 1665,
      "dangan": 1666,
      "vidu": 1667,
      "kedua": 1668,
      "cok": 1669,
      "digunakan": 1670,
      "Perang": 1671,
      "ona": 1672,
      "Seiring": 1673,
      "anggung": 1674,
      "elesaikan": 1675,
      "individu": 1676,
      "dingin": 1677,
      "menim": 1678,
      "sekelompok": 1679,
      "mendukung": 1680,
      "menyelesaikan": 1681,
      "ayakan": 1682,
      "menceritakan": 1683,
      "Ia": 1684,
      "isan": 1685,
      "meningkatkan": 1686,
      "aris": 1687,
      "penuhi": 1688,
      "fak": 1689,
      "daun": 1690,
      "lap": 1691,
      "berhenti": 1692,
      "impi": 1693,
      "musik": 1694,
      "bahaya": 1695,
      "gener": 1696,
      "ulang": 1697,
      "menambahkan": 1698,
      "tara": 1699,
      "dik": 1700,
      "Ah": 1701,
      "Karena": 1702,
      "Ib": 1703,
      "terutama": 1704,
      "lahan": 1705,
      "mengg": 1706,
      "rika": 1707,
      "uan": 1708,
      "Mak": 1709,
      "Akhirnya": 1710,
      "lagu": 1711,
      "bangga": 1712,
      "inspirasi": 1713,
      "generasi": 1714,
      "fi": 1715,
      "lat": 1716,
      "sikan": 1717,
      "iban": 1718,
      "dipenuhi": 1719,
      "cul": 1720,
      "ajaiban": 1721,
      "langkah": 1722,
      "isasi": 1723,
      "harmon": 1724,
      "Ker": 1725,
      "tebak": 1726,
      "menerima": 1727,
      "Afrika": 1728,
      "Ow": 1729,
      "tal": 1730,
      "kenapa": 1731,
      "ainkan": 1732,
      "rahasi": 1733,
      "Ero": 1734,
      "esin": 1735,
      "Pak": 1736,
      "angkat": 1737,
      "tiga": 1738,
      "buk": 1739,
      "Ibunya": 1740,
      "Owl": 1741,
      "ina": 1742,
      "keajaiban": 1743,
      "peman": 1744,
      "temukan": 1745,
      "hijau": 1746,
      "dasarkan": 1747,
      "pon": 1748,
      "karya": 1749,
      "Eropa": 1750,
      "intah": 1751,
      "memak": 1752,
      "kaki": 1753,
      "nenek": 1754,
      "pindah": 1755,
      "kok": 1756,
      "menyer": 1757,
      "penduduk": 1758,
      "bangunan": 1759,
      "dokter": 1760,
      "priba": 1761,
      "marah": 1762,
      "antik": 1763,
      "pemer": 1764,
      "damai": 1765,
      "Bi": 1766,
      "tenang": 1767,
      "sayur": 1768,
      "kr": 1769,
      "ompat": 1770,
      "konflik": 1771,
      "Kel": 1772,
      "dag": 1773,
      "luas": 1774,
      "mengenakan": 1775,
      "pus": 1776,
      ",”": 1777,
      "kertas": 1778,
      "maksudnya": 1779,
      "pendapat": 1780,
      "jakan": 1781,
      "and": 1782,
      "pulau": 1783,
      "padanya": 1784,
      "membagikan": 1785,
      "empati": 1786,
      "os": 1787,
      "etahuan": 1788,
      "dakan": 1789,
      "engah": 1790,
      "ajaan": 1791,
      "terasa": 1792,
      "membantunya": 1793,
      "Aku": 1794,
      "bulkan": 1795,
      "kayu": 1796,
      "sepak": 1797,
      "gen": 1798,
      "samp": 1799,
      "berusaha": 1800,
      "jur": 1801,
      "pula": 1802,
      "bab": 1803,
      "sisi": 1804,
      "Dalam": 1805,
      "kam": 1806,
      "iksa": 1807,
      "serupa": 1808,
      "ate": 1809,
      "berdasarkan": 1810,
      "pergian": 1811,
      "mesin": 1812,
      "mengajarkan": 1813,
      "ilang": 1814,
      "dasar": 1815,
      "segalanya": 1816,
      "cantik": 1817,
      "bersenang": 1818,
      "melakukannya": 1819,
      "rahasia": 1820,
      "ola": 1821,
      "menang": 1822,
      "uhan": 1823,
      "egang": 1824,
      "nasi": 1825,
      "istiwa": 1826,
      "membeli": 1827,
      "tribu": 1828,
      "muncul": 1829,
      "yek": 1830,
      "atang": 1831,
      "peraturan": 1832,
      "mengu": 1833,
      "merasakan": 1834,
      "pikirkan": 1835,
      "fis": 1836,
      "pik": 1837,
      "ensi": 1838,
      "Bahkan": 1839,
      "tari": 1840,
      "emas": 1841,
      "interaksi": 1842,
      "gantung": 1843,
      "angka": 1844,
      "Tet": 1845,
      "peny": 1846,
      "panas": 1847,
      "Emma": 1848,
      "kesalahan": 1849,
      "mengam": 1850,
      "potong": 1851,
      "Oke": 1852,
      "sip": 1853,
      "binatang": 1854,
      "menimbulkan": 1855,
      "ad": 1856,
      "mempertimbangkan": 1857,
      "berki": 1858,
      "rakti": 1859,
      "',": 1860,
      "rumit": 1861,
      "menanam": 1862,
      "latihan": 1863,
      "rus": 1864,
      "amat": 1865,
      "line": 1866,
      "langit": 1867,
      "kas": 1868,
      "jalannya": 1869,
      "solusi": 1870,
      "merayakan": 1871,
      "butu": 1872,
      "eks": 1873,
      "wanita": 1874,
      "dai": 1875,
      "ilah": 1876,
      "halnya": 1877,
      "napas": 1878,
      "her": 1879,
      "keber": 1880,
      "bepergian": 1881,
      "kotak": 1882,
      "tribusi": 1883,
      "Kamu": 1884,
      "Salah": 1885,
      "menunggu": 1886,
      "Pro": 1887,
      "),": 1888,
      "libat": 1889,
      "bintang": 1890,
      "tip": 1891,
      "pulang": 1892,
      "minum": 1893,
      "ela": 1894,
      "illy": 1895,
      "og": 1896,
      "setuju": 1897,
      "lupa": 1898,
      "warkan": 1899,
      "proyek": 1900,
      "Kadang": 1901,
      "bukankah": 1902,
      "Pem": 1903,
      "yol": 1904,
      "peristiwa": 1905,
      "mengur": 1906,
      "pertinya": 1907,
      "Ban": 1908,
      "rasi": 1909,
      "memainkan": 1910,
      "hadi": 1911,
      "jing": 1912,
      "pengetahuan": 1913,
      "yo": 1914,
      "put": 1915,
      "memperbaik": 1916,
      "kesal": 1917,
      "berhasil": 1918,
      "Para": 1919,
      "hasil": 1920,
      "butuhkan": 1921,
      "Penasaran": 1922,
      "Oli": 1923,
      "bol": 1924,
      "Re": 1925,
      "kesem": 1926,
      "melew": 1927,
      "kontribusi": 1928,
      "pemikiran": 1929,
      "upaya": 1930,
      "berjalannya": 1931,
      "Pertama": 1932,
      "sabaran": 1933,
      "psikologi": 1934,
      "indari": 1935,
      "halaman": 1936,
      "raga": 1937,
      "cermat": 1938,
      "seiring": 1939,
      "Selanjutnya": 1940,
      "unjung": 1941,
      "cing": 1942,
      "kepal": 1943,
      "menge": 1944,
      "kenangan": 1945,
      "Tem": 1946,
      "kapal": 1947,
      "pang": 1948,
      ").": 1949,
      "Tom": 1950,
      "terkenal": 1951,
      "hana": 1952,
      "we": 1953,
      "kesabaran": 1954,
      "Si": 1955,
      "ge": 1956,
      "melanjut": 1957,
      "tentara": 1958,
      "Ku": 1959,
      "lawan": 1960,
      "cerdas": 1961,
      "melanjutkan": 1962,
      "online": 1963,
      "raktikkan": 1964,
      "acara": 1965,
      "berlari": 1966,
      "krim": 1967,
      "mengamati": 1968,
      "terapi": 1969,
      "konsep": 1970,
      "ukan": 1971,
      "any": 1972,
      "agama": 1973,
      "Is": 1974,
      "Pe": 1975,
      "jelajah": 1976,
      "ode": 1977,
      "jukan": 1978,
      "purna": 1979,
      "seli": 1980,
      "perlukan": 1981,
      "era": 1982,
      "patan": 1983,
      "gerakan": 1984,
      "Ingatlah": 1985,
      "Belum": 1986,
      "berisi": 1987,
      "\",": 1988,
      "lorasi": 1989,
      "bad": 1990,
      "pesan": 1991,
      "kesempatan": 1992,
      "bas": 1993,
      "sejenak": 1994,
      "lucu": 1995,
      "ektif": 1996,
      "pemberani": 1997,
      "sempurna": 1998,
      "anggota": 1999,
      "Maka": 2000,
      "menyebarkan": 2001,
      "encan": 2002,
      "olahraga": 2003,
      "mir": 2004,
      "anjing": 2005,
      "pesi": 2006,
      "land": 2007,
      "fes": 2008,
      "lex": 2009,
      "menuju": 2010,
      "agam": 2011,
      "irim": 2012,
      "kain": 2013,
      "nis": 2014,
      "menakut": 2015,
      "berkomunikasi": 2016,
      "kaya": 2017,
      "merah": 2018,
      "tanda": 2019,
      "kemampu": 2020,
      "terlu": 2021,
      "pura": 2022,
      "batkan": 2023,
      "Terakhir": 2024,
      "Alex": 2025,
      "menginginkan": 2026,
      "son": 2027,
      "meli": 2028,
      "hujan": 2029,
      "keluarganya": 2030,
      "cat": 2031,
      "unia": 2032,
      "berkilau": 2033,
      "berat": 2034,
      "terlibat": 2035,
      "kaca": 2036,
      "menger": 2037,
      "tau": 2038,
      "encanakan": 2039,
      "artinya": 2040,
      "bermanfaat": 2041,
      "bimbing": 2042,
      "kerajaan": 2043,
      "pengaruhi": 2044,
      "awal": 2045,
      "bersih": 2046,
      "melompat": 2047,
      "lokal": 2048,
      "hit": 2049,
      "atunya": 2050,
      "isme": 2051,
      "membuka": 2052,
      "Memahami": 2053,
      "eliti": 2054,
      "bulan": 2055,
      "menyim": 2056,
      "Banyak": 2057,
      "mene": 2058,
      "kul": 2059,
      "pantai": 2060,
      "pria": 2061,
      "menawarkan": 2062,
      "Nenek": 2063,
      "fil": 2064,
      "berdua": 2065,
      "poli": 2066,
      "membayangkan": 2067,
      "Peng": 2068,
      "ngomong": 2069,
      "tali": 2070,
      "gili": 2071,
      "les": 2072,
      "jum": 2073,
      "menghindari": 2074,
      "selamatan": 2075,
      "mimpi": 2076,
      "keindah": 2077,
      "juang": 2078,
      "mempraktikkan": 2079,
      "hir": 2080,
      "pr": 2081,
      "teka": 2082,
      "terbuat": 2083,
      "ceg": 2084,
      "tetangga": 2085,
      "melintasi": 2086,
      "cocok": 2087,
      "sayuran": 2088,
      "pribadi": 2089,
      "dibuat": 2090,
      "terlebih": 2091,
      "ategi": 2092,
      "beri": 2093,
      "turun": 2094,
      "engkar": 2095,
      "sawat": 2096,
      "puter": 2097,
      "Selama": 2098,
      "Oliver": 2099,
      "jian": 2100,
      "bercerita": 2101,
      "perl": 2102,
      "buahan": 2103,
      "menakutkan": 2104,
      "sembun": 2105,
      "Tetapi": 2106,
      "potongan": 2107,
      "par": 2108,
      "alitas": 2109,
      "unt": 2110,
      "alasan": 2111,
      "melawan": 2112,
      "Ayah": 2113,
      "cah": 2114,
      "menon": 2115,
      "cua": 2116,
      "pintar": 2117,
      "saudara": 2118,
      "keada": 2119,
      "dukungan": 2120,
      "lautan": 2121,
      "Mar": 2122,
      "seru": 2123,
      "hubungannya": 2124,
      "pagi": 2125,
      "abad": 2126,
      "fe": 2127,
      "benih": 2128,
      "derhana": 2129,
      "milik": 2130,
      "menjalan": 2131,
      "tis": 2132,
      "baca": 2133,
      "percayaan": 2134,
      "melibatkan": 2135,
      "sekitarnya": 2136,
      "edung": 2137,
      "ajinan": 2138,
      "melewati": 2139,
      "terdapat": 2140,
      "cak": 2141,
      "ry": 2142,
      "tudi": 2143,
      "biru": 2144,
      "Ja": 2145,
      "nam": 2146,
      "rencana": 2147,
      "kereta": 2148,
      "sai": 2149,
      "rumahnya": 2150,
      "memasuk": 2151,
      "anan": 2152,
      "ungsi": 2153,
      "komputer": 2154,
      "Kan": 2155,
      "sepe": 2156,
      "kebijaksana": 2157,
      "ikian": 2158,
      "ongkok": 2159,
      "peri": 2160,
      "ov": 2161,
      "pesawat": 2162,
      "dekatnya": 2163,
      "memakai": 2164,
      "acam": 2165,
      "sebab": 2166,
      "mempengaruhi": 2167,
      "foto": 2168,
      "mengajukan": 2169,
      "kuno": 2170,
      "teknik": 2171,
      "hadiah": 2172,
      "Benarkah": 2173,
      "sesuai": 2174,
      "Sem": 2175,
      "jata": 2176,
      "ahli": 2177,
      "kepercayaan": 2178,
      "Tiongkok": 2179,
      "keadaan": 2180,
      "Atau": 2181,
      "He": 2182,
      "op": 2183,
      "the": 2184,
      "dikan": 2185,
      "akses": 2186,
      "giliran": 2187,
      "cur": 2188,
      "din": 2189,
      "spesi": 2190,
      "asinya": 2191,
      "kue": 2192,
      "sederhana": 2193,
      "bumi": 2194,
      "kemampuan": 2195,
      "Car": 2196,
      "tran": 2197,
      "mengan": 2198,
      "menyam": 2199,
      "Tommy": 2200,
      "Bur": 2201,
      "Ngomong": 2202,
      "lima": 2203,
      "obat": 2204,
      "fisik": 2205,
      "19": 2206,
      "dip": 2207,
      "keselamatan": 2208,
      "mele": 2209,
      "disku": 2210,
      "ilmuwan": 2211,
      "sir": 2212,
      "hantu": 2213,
      "bimbingan": 2214,
      "zz": 2215,
      "bulu": 2216,
      "kerajinan": 2217,
      "desain": 2218,
      "cuaca": 2219,
      "cis": 2220,
      "dimaksud": 2221,
      "Itulah": 2222,
      "memperbaiki": 2223,
      "hn": 2224,
      "ne": 2225,
      "memegang": 2226,
      "inggu": 2227,
      "enai": 2228,
      "serta": 2229,
      "ideo": 2230,
      "Yang": 2231,
      "menari": 2232,
      "senjata": 2233,
      "harap": 2234,
      "landia": 2235,
      "gedung": 2236,
      "berbahaya": 2237,
      "mengirim": 2238,
      "dul": 2239,
      "topik": 2240,
      "menanyakan": 2241,
      "ganti": 2242,
      "strategi": 2243,
      "memeriksa": 2244,
      "mirip": 2245,
      "meski": 2246,
      "video": 2247,
      "harta": 2248,
      "tulis": 2249,
      "merencanakan": 2250,
      "alur": 2251,
      "Dit": 2252,
      "memec": 2253,
      "dulu": 2254,
      "penampilan": 2255,
      "lilin": 2256,
      "Selamat": 2257,
      "stres": 2258,
      "Sa": 2259,
      "alau": 2260,
      "sampah": 2261,
      "Meski": 2262,
      "mengag": 2263,
      "momen": 2264,
      "produk": 2265,
      "kebutu": 2266,
      "setempat": 2267,
      "perahu": 2268,
      "pertan": 2269,
      "teri": 2270,
      "Dari": 2271,
      "jatu": 2272,
      "kira": 2273,
      "vitas": 2274,
      "Anak": 2275,
      "John": 2276,
      "Ditambah": 2277,
      "bakat": 2278,
      "ilangan": 2279,
      "aspek": 2280,
      "ikatan": 2281,
      "siang": 2282,
      "Sebaliknya": 2283,
      "struk": 2284,
      "keindahan": 2285,
      "uku": 2286,
      "bayi": 2287,
      "terdengar": 2288,
      "kendara": 2289,
      "apis": 2290,
      "tern": 2291,
      "liar": 2292,
      "dalamnya": 2293,
      "jahat": 2294,
      "menonton": 2295,
      "sepeda": 2296,
      "bit": 2297,
      "vo": 2298,
      "anjang": 2299,
      "mengenai": 2300,
      "sembunyi": 2301,
      "diman": 2302,
      "berp": 2303,
      "Pas": 2304,
      "benang": 2305,
      "kehilangan": 2306,
      "pustak": 2307,
      "Rusia": 2308,
      "asli": 2309,
      "barunya": 2310,
      "bertanggung": 2311,
      "ahaman": 2312,
      "peneliti": 2313,
      "Mr": 2314,
      "py": 2315,
      "lay": 2316,
      "ucapkan": 2317,
      "Hari": 2318,
      "dut": 2319,
      "wajah": 2320,
      "menyebutnya": 2321,
      "Dunia": 2322,
      "Yah": 2323,
      "emat": 2324,
      "lanet": 2325,
      "katakan": 2326,
      "ruangan": 2327,
      "Ser": 2328,
      "sore": 2329,
      "alatan": 2330,
      "patu": 2331,
      "semacam": 2332,
      "Teman": 2333,
      "Bar": 2334,
      "dy": 2335,
      "kepadanya": 2336,
      "pohonan": 2337,
      "pahlawan": 2338,
      "seberapa": 2339,
      "budiman": 2340,
      "letak": 2341,
      "super": 2342,
      "menjelaskannya": 2343,
      "terluka": 2344,
      "cegah": 2345,
      "kebijaksanaan": 2346,
      "Penting": 2347,
      "seng": 2348,
      "memakan": 2349,
      "layar": 2350,
      "hebat": 2351,
      "jumlah": 2352,
      "indak": 2353,
      "mencegah": 2354,
      "warga": 2355,
      "Span": 2356,
      "ef": 2357,
      "garis": 2358,
      "peralatan": 2359,
      "sudut": 2360,
      "entang": 2361,
      "sinya": 2362,
      "th": 2363,
      "menangan": 2364,
      "mendatang": 2365,
      "emui": 2366,
      "ala": 2367,
      "adilan": 2368,
      "pasir": 2369,
      "favoritnya": 2370,
      "menyakiti": 2371,
      "pemandangan": 2372,
      "jatuh": 2373,
      "Spanyol": 2374,
      "Izinkan": 2375,
      "angin": 2376,
      "beruang": 2377,
      "keyakin": 2378,
      "leks": 2379,
      "raja": 2380,
      "rumput": 2381,
      "naik": 2382,
      "entitas": 2383,
      "Bella": 2384,
      "Kanada": 2385,
      "Burung": 2386,
      "apel": 2387,
      "pepohonan": 2388,
      "ic": 2389,
      "kini": 2390,
      "disi": 2391,
      "sistem": 2392,
      "duan": 2393,
      "asikan": 2394,
      "mengembangkan": 2395,
      "kebutuhan": 2396,
      "tam": 2397,
      "wor": 2398,
      "akter": 2399,
      "apun": 2400,
      "pengerti": 2401,
      "pemahaman": 2402,
      "pihak": 2403,
      "balok": 2404,
      "menyimpan": 2405,
      "pengertian": 2406,
      "etak": 2407,
      "amanan": 2408,
      "wakili": 2409,
      "percak": 2410,
      "planet": 2411,
      "menju": 2412,
      "bertahan": 2413,
      "berkontribusi": 2414,
      "kupu": 2415,
      "mengelola": 2416,
      "memecahkan": 2417,
      "Mo": 2418,
      "by": 2419,
      "miliki": 2420,
      "are": 2421,
      "suk": 2422,
      "tempu": 2423,
      "selamanya": 2424,
      "ukuran": 2425,
      "wasan": 2426,
      "melam": 2427,
      "menco": 2428,
      "satuan": 2429,
      "sepatu": 2430,
      "berde": 2431,
      "kebiasa": 2432,
      "seniman": 2433,
      "menjadikan": 2434,
      "bertindak": 2435,
      "mengurangi": 2436,
      "guna": 2437,
      "Maria": 2438,
      "sesuatunya": 2439,
      "latar": 2440,
      "karakter": 2441,
      "den": 2442,
      "lampu": 2443,
      "berkel": 2444,
      "penemuan": 2445,
      "ativitas": 2446,
      "sendirian": 2447,
      "menganggap": 2448,
      "tempuran": 2449,
      "Kalau": 2450,
      "sele": 2451,
      "buran": 2452,
      "imbangan": 2453,
      "mengagumi": 2454,
      "sepertinya": 2455,
      "mengeksplorasi": 2456,
      "gag": 2457,
      "Tubuh": 2458,
      "fer": 2459,
      "ren": 2460,
      "ungkap": 2461,
      "melatih": 2462,
      "percakapan": 2463,
      "kebiasaan": 2464,
      "lok": 2465,
      "keranjang": 2466,
      "adik": 2467,
      "ampur": 2468,
      "ig": 2469,
      "----": 2470,
      "film": 2471,
      "kim": 2472,
      "ringan": 2473,
      "beragam": 2474,
      "00": 2475,
      "mar": 2476,
      "wanya": 2477,
      "organ": 2478,
      "ungg": 2479,
      "jiwa": 2480,
      "kreativitas": 2481,
      "Ken": 2482,
      "memang": 2483,
      "lek": 2484,
      "menggunakannya": 2485,
      "kemungkin": 2486,
      "sekaligus": 2487,
      "Siapa": 2488,
      "Jer": 2489,
      "por": 2490,
      "pembelajar": 2491,
      "ihara": 2492,
      "Keren": 2493,
      "keyakinan": 2494,
      "tengah": 2495,
      "buatan": 2496,
      "menghubung": 2497,
      "ley": 2498,
      "mewakili": 2499,
      "sing": 2500,
      "perlahan": 2501,
      "fesor": 2502,
      "Billy": 2503,
      "minggu": 2504,
      "teks": 2505,
      "memasak": 2506,
      "Akal": 2507,
      "berinteraksi": 2508,
      "damaian": 2509,
      "demi": 2510,
      "diperlukan": 2511,
      "halus": 2512,
      "peluang": 2513,
      "kreatif": 2514,
      "Mei": 2515,
      "menangani": 2516,
      "tarik": 2517,
      "berenang": 2518,
      "memin": 2519,
      "iri": 2520,
      "pertemuan": 2521,
      "teknologi": 2522,
      "hitam": 2523,
      "Je": 2524,
      "nik": 2525,
      "macam": 2526,
      "dern": 2527,
      "pertumbuhan": 2528,
      "ukis": 2529,
      "memperkenal": 2530,
      "Artinya": 2531,
      "janya": 2532,
      "ras": 2533,
      "seri": 2534,
      "wis": 2535,
      "lim": 2536,
      "banya": 2537,
      "menjalani": 2538,
      "kra": 2539,
      "erah": 2540,
      "sihkan": 2541,
      "membiarkan": 2542,
      "peta": 2543,
      "pemerintah": 2544,
      "Kat": 2545,
      "Le": 2546,
      "gg": 2547,
      "angnya": 2548,
      "sejak": 2549,
      "didikan": 2550,
      "berharap": 2551,
      "membersihkan": 2552,
      "sukai": 2553,
      "mengajar": 2554,
      "pustakaan": 2555,
      "Fin": 2556,
      "jalur": 2557,
      "qu": 2558,
      "keamanan": 2559,
      "terke": 2560,
      "jaga": 2561,
      "maka": 2562,
      "usahaan": 2563,
      "menyaran": 2564,
      "bilang": 2565,
      "mencobanya": 2566,
      "Maya": 2567,
      "Pikiran": 2568,
      "kri": 2569,
      "studi": 2570,
      "ink": 2571,
      "tergantung": 2572,
      "suku": 2573,
      "surat": 2574,
      "menyarankan": 2575,
      "af": 2576,
      "zaman": 2577,
      "awalnya": 2578,
      "menyedi": 2579,
      "anyikan": 2580,
      "Seorang": 2581,
      "hobi": 2582,
      "kamar": 2583,
      "kemungkinan": 2584,
      "pembelajaran": 2585,
      "AN": 2586,
      "De": 2587,
      "Jangan": 2588,
      "hilang": 2589,
      "puk": 2590,
      "melihatnya": 2591,
      "sengaja": 2592,
      "Kiki": 2593,
      "Po": 2594,
      "hel": 2595,
      "ilan": 2596,
      "kurang": 2597,
      "umum": 2598,
      "faktor": 2599,
      "jer": 2600,
      "kuda": 2601,
      "mengekspresi": 2602,
      "Kon": 2603,
      "ilai": 2604,
      "je": 2605,
      "berdiri": 2606,
      "iter": 2607,
      "omi": 2608,
      "olog": 2609,
      "bisnis": 2610,
      "identitas": 2611,
      "Han": 2612,
      "rut": 2613,
      "batasan": 2614,
      "keseimbangan": 2615,
      "ekstra": 2616,
      "ditemukan": 2617,
      "bus": 2618,
      "terse": 2619,
      "mengekspresikan": 2620,
      "mis": 2621,
      "erat": 2622,
      "memberit": 2623,
      "menyel": 2624,
      "agaman": 2625,
      "menghubungkan": 2626,
      "cil": 2627,
      "jutan": 2628,
      "yakit": 2629,
      "menyanyikan": 2630,
      "jung": 2631,
      "rama": 2632,
      "sy": 2633,
      "segar": 2634,
      "asing": 2635,
      "duanya": 2636,
      "belah": 2637,
      "pintu": 2638,
      "Melalui": 2639,
      "dimulai": 2640,
      "daku": 2641,
      "menerapkan": 2642,
      "memperkenalkan": 2643,
      "gangg": 2644,
      "situs": 2645,
      "lub": 2646,
      "kerjanya": 2647,
      "Lihat": 2648,
      "ikasi": 2649,
      "egangan": 2650,
      "Begitu": 2651,
      "mengangkat": 2652,
      "mainkan": 2653,
      "pembaca": 2654,
      "janji": 2655,
      "mengeluar": 2656,
      "El": 2657,
      "eja": 2658,
      "let": 2659,
      "dalikan": 2660,
      "ceritakan": 2661,
      "antang": 2662,
      "Selatan": 2663,
      "selisi": 2664,
      "sebabnya": 2665,
      "AS": 2666,
      "perut": 2667,
      "adaptasi": 2668,
      "pilih": 2669,
      "Roma": 2670,
      "seku": 2671,
      "berang": 2672,
      "persis": 2673,
      "ketahu": 2674,
      "Timur": 2675,
      "salju": 2676,
      "fungsi": 2677,
      "erd": 2678,
      "berperang": 2679,
      "berdampak": 2680,
      "gigi": 2681,
      "putar": 2682,
      "penyakit": 2683,
      "bertambah": 2684,
      "caranya": 2685,
      "Profesor": 2686,
      "Sambil": 2687,
      "mah": 2688,
      "rem": 2689,
      "tol": 2690,
      "bers": 2691,
      "kait": 2692,
      "mengucapkan": 2693,
      "melukis": 2694,
      "jarak": 2695,
      "maupun": 2696,
      "area": 2697,
      "unan": 2698,
      "memel": 2699,
      "uru": 2700,
      "istiadat": 2701,
      "cahaya": 2702,
      "Jerman": 2703,
      "Man": 2704,
      "bawa": 2705,
      "raks": 2706,
      "layanan": 2707,
      "mengeluarkan": 2708,
      "!”": 2709,
      "Bumi": 2710,
      "Kak": 2711,
      "rik": 2712,
      "ster": 2713,
      "pertempuran": 2714,
      "kebun": 2715,
      "menginspirasi": 2716,
      "terapis": 2717,
      "baiknya": 2718,
      "Melihat": 2719,
      "Li": 2720,
      "New": 2721,
      "sad": 2722,
      "manis": 2723,
      "menyaksikan": 2724,
      "II": 2725,
      "aikan": 2726,
      "arin": 2727,
      "mengungkap": 2728,
      "asaannya": 2729,
      "kualitas": 2730,
      "olly": 2731,
      "awatan": 2732,
      "intai": 2733,
      "”.": 2734,
      "berterima": 2735,
      "Menurut": 2736,
      "Asia": 2737,
      "deta": 2738,
      "keker": 2739,
      "keseluruh": 2740,
      "menyem": 2741,
      "meja": 2742,
      "astis": 2743,
      "gagasan": 2744,
      "jem": 2745,
      "tes": 2746,
      "memeng": 2747,
      "raksasa": 2748,
      "La": 2749,
      "met": 2750,
      "ratu": 2751,
      "ins": 2752,
      "alir": 2753,
      "menyentu": 2754,
      "gunaan": 2755,
      "proses": 2756,
      "kreasi": 2757,
      "memengaruhi": 2758,
      "Tuhan": 2759,
      "kendaraan": 2760,
      "sadaran": 2761,
      "git": 2762,
      "mental": 2763,
      "bere": 2764,
      "daerah": 2765,
      "perpustakaan": 2766,
      "popul": 2767,
      "sukses": 2768,
      "Mu": 2769,
      "mampu": 2770,
      "dih": 2771,
      "perusahaan": 2772,
      "bebas": 2773,
      "oni": 2774,
      "gunung": 2775,
      "selanjutnya": 2776,
      "batas": 2777,
      "modern": 2778,
      "memandang": 2779,
      "Pet": 2780,
      "seum": 2781,
      "dimana": 2782,
      "mencu": 2783,
      "emosional": 2784,
      "tongkat": 2785,
      "keseluruhan": 2786,
      "menyentuh": 2787,
      "for": 2788,
      "of": 2789,
      "sek": 2790,
      "perasaannya": 2791,
      "mengatur": 2792,
      "talia": 2793,
      "Italia": 2794,
      "bertahun": 2795,
      "kemarin": 2796,
      "petani": 2797,
      "wortel": 2798,
      "tom": 2799,
      "teringat": 2800,
      "terakhir": 2801,
      "iden": 2802,
      "kepala": 2803,
      "wisata": 2804,
      "Kini": 2805,
      "kasa": 2806,
      "pemu": 2807,
      "sional": 2808,
      "penu": 2809,
      "petualang": 2810,
      "mengerjakan": 2811,
      "atnya": 2812,
      "sekeliling": 2813,
      "persatuan": 2814,
      "puti": 2815,
      "Dem": 2816,
      "Kom": 2817,
      "Utara": 2818,
      "lelah": 2819,
      "mendek": 2820,
      "berperan": 2821,
      "karun": 2822,
      "Soalnya": 2823,
      "tarikan": 2824,
      "melepas": 2825,
      "pertanian": 2826,
      "Tan": 2827,
      "aju": 2828,
      "vasi": 2829,
      "ine": 2830,
      "bukit": 2831,
      "ekon": 2832,
      "kakak": 2833,
      "ketahui": 2834,
      "biji": 2835,
      "gaya": 2836,
      "anggur": 2837,
      "lancar": 2838,
      "nasional": 2839,
      "kesayang": 2840,
      "asai": 2841,
      "muka": 2842,
      "ikutnya": 2843,
      "Ri": 2844,
      "ugi": 2845,
      "ve": 2846,
      "arisan": 2847,
      "ria": 2848,
      "kakek": 2849,
      "ty": 2850,
      "osis": 2851,
      "kadar": 2852,
      "lie": 2853,
      "kondisi": 2854,
      "sopan": 2855,
      "yukur": 2856,
      "Da": 2857,
      "Tur": 2858,
      "dung": 2859,
      "pra": 2860,
      "keingin": 2861,
      "alisis": 2862,
      "pendidikan": 2863,
      "lahir": 2864,
      "harmonisan": 2865,
      "Hu": 2866,
      "aktif": 2867,
      "ahter": 2868,
      "perawatan": 2869,
      "keharmonisan": 2870,
      "padaku": 2871,
      "roti": 2872,
      "siswa": 2873,
      "simbol": 2874,
      "yon": 2875,
      "tahanan": 2876,
      "dagang": 2877,
      "menangkap": 2878,
      "aranya": 2879,
      "menem": 2880,
      "sisa": 2881,
      "buru": 2882,
      "hanyalah": 2883,
      "tepi": 2884,
      "indung": 2885,
      "lar": 2886,
      "indu": 2887,
      "berteman": 2888,
      "berhubungan": 2889,
      "sejahter": 2890,
      "18": 2891,
      "malah": 2892,
      "menenangkan": 2893,
      "beradaptasi": 2894,
      "kesadaran": 2895,
      "bidang": 2896,
      "mengon": 2897,
      "ikkan": 2898,
      "menyambut": 2899,
      "kekerasan": 2900,
      "Mind": 2901,
      "fant": 2902,
      "katan": 2903,
      "berhak": 2904,
      "sungg": 2905,
      "gabungkan": 2906,
      "fakta": 2907,
      "Mama": 2908,
      "uni": 2909,
      "tup": 2910,
      "berguna": 2911,
      "keadilan": 2912,
      "berkat": 2913,
      "meme": 2914,
      "itung": 2915,
      "iko": 2916,
      "kucing": 2917,
      "uhi": 2918,
      "putih": 2919,
      "imu": 2920,
      "pernahkah": 2921,
      "mengendalikan": 2922,
      "ginya": 2923,
      "mendekat": 2924,
      "sekadar": 2925,
      "mengundang": 2926,
      "waktunya": 2927,
      "pelan": 2928,
      "raktik": 2929,
      "mengadakan": 2930,
      "Co": 2931,
      "gram": 2932,
      "menantang": 2933,
      "lus": 2934,
      "gunungan": 2935,
      "ogra": 2936,
      "yanya": 2937,
      "menyatu": 2938,
      "hukum": 2939,
      "ampilkan": 2940,
      "daunan": 2941,
      "izin": 2942,
      "teg": 2943,
      "ua": 2944,
      "set": 2945,
      "badai": 2946,
      "usak": 2947,
      "sedangkan": 2948,
      "militer": 2949,
      "selesai": 2950,
      "rol": 2951,
      "permen": 2952,
      "pandang": 2953,
      "bertengkar": 2954,
      "pesta": 2955,
      "cangk": 2956,
      "diperlakukan": 2957,
      "tambahan": 2958,
      "berakhir": 2959,
      "hip": 2960,
      "rancis": 2961,
      "profe": 2962,
      "Pu": 2963,
      "rel": 2964,
      "merusak": 2965,
      "waban": 2966,
      "penjelajah": 2967,
      "Emily": 2968,
      "untung": 2969,
      "organisasi": 2970,
      "Ge": 2971,
      "tunggu": 2972,
      "ender": 2973,
      "akar": 2974,
      "amin": 2975,
      "pener": 2976,
      "dedaunan": 2977,
      "menghenti": 2978,
      "sumsi": 2979,
      "diingat": 2980,
      "berperilaku": 2981,
      "apat": 2982,
      "trasi": 2983,
      "unjukan": 2984,
      "perjalanannya": 2985,
      "dera": 2986,
      "alas": 2987,
      "akutan": 2988,
      "koh": 2989,
      "mencintai": 2990,
      "pengaruh": 2991,
      "komp": 2992,
      "Ny": 2993,
      "Sun": 2994,
      "ham": 2995,
      "run": 2996,
      "dibutuhkan": 2997,
      "aminya": 2998,
      "terletak": 2999,
      "spektif": 3000,
      "penc": 3001,
      "kendal": 3002,
      "mengajak": 3003,
      "tensi": 3004,
      "Pastinya": 3005,
      "pita": 3006,
      "berjanji": 3007,
      "perspektif": 3008,
      "dengannya": 3009,
      "lum": 3010,
      "otong": 3011,
      "volusi": 3012,
      "oma": 3013,
      "sebaliknya": 3014,
      "apresi": 3015,
      "terp": 3016,
      "obalah": 3017,
      "Sebenarnya": 3018,
      "mengendara": 3019,
      "serius": 3020,
      "Il": 3021,
      "cemas": 3022,
      "sta": 3023,
      "intahan": 3024,
      "membah": 3025,
      "Sayang": 3026,
      "go": 3027,
      "minta": 3028,
      "menet": 3029,
      "amer": 3030,
      "berusia": 3031,
      "mengas": 3032,
      "suh": 3033,
      "eksi": 3034,
      "pengu": 3035,
      "ketakutan": 3036,
      "Jepang": 3037,
      "fantastis": 3038,
      "Yun": 3039,
      "praktik": 3040,
      "st": 3041,
      "bersinar": 3042,
      "memperkuat": 3043,
      "moyang": 3044,
      "akibat": 3045,
      "pertunjukan": 3046,
      "mengenali": 3047,
      "ody": 3048,
      "dagangan": 3049,
      "keberagaman": 3050,
      "berdebat": 3051,
      "The": 3052,
      "dom": 3053,
      "strik": 3054,
      "detail": 3055,
      "lel": 3056,
      "bersatu": 3057,
      "keduanya": 3058,
      "anggap": 3059,
      "pelukan": 3060,
      "Serikat": 3061,
      "kimia": 3062,
      "ramai": 3063,
      "apresiasi": 3064,
      "bergiliran": 3065,
      "penggunaan": 3066,
      "tangannya": 3067,
      "mengirimkan": 3068,
      "profesional": 3069,
      "gni": 3070,
      "rasanya": 3071,
      "kekhawatir": 3072,
      "sif": 3073,
      "meles": 3074,
      "pub": 3075,
      "mainannya": 3076,
      "Kecil": 3077,
      "Kenapa": 3078,
      "membingung": 3079,
      "imajin": 3080,
      "minat": 3081,
      "tradisional": 3082,
      "sejahteraan": 3083,
      "Vi": 3084,
      "terang": 3085,
      "menyi": 3086,
      "darinya": 3087,
      "krayon": 3088,
      "Gre": 3089,
      "anian": 3090,
      "insip": 3091,
      "ahit": 3092,
      "tupai": 3093,
      "obatan": 3094,
      "wawasan": 3095,
      "akup": 3096,
      "India": 3097,
      "utri": 3098,
      "leksi": 3099,
      "kompleks": 3100,
      "del": 3101,
      "terk": 3102,
      "nie": 3103,
      "teki": 3104,
      "Masyarakat": 3105,
      "melepaskan": 3106,
      "membingungkan": 3107,
      "Kerja": 3108,
      "Raja": 3109,
      "Satu": 3110,
      "liat": 3111,
      "ilik": 3112,
      "judul": 3113,
      "pendek": 3114,
      "Sej": 3115,
      "pengunjung": 3116,
      "ampir": 3117,
      "perangkat": 3118,
      "Hantu": 3119,
      "brik": 3120,
      "menampilkan": 3121,
      "diam": 3122,
      "badan": 3123,
      "menjahit": 3124,
      "truk": 3125,
      "membimbing": 3126,
      "kekuasaan": 3127,
      "menjual": 3128,
      "metode": 3129,
      "Yahu": 3130,
      "tle": 3131,
      "ujung": 3132,
      "tuanya": 3133,
      "buhan": 3134,
      "pelihara": 3135,
      "camilan": 3136,
      "jurit": 3137,
      "menyediakan": 3138,
      "selisihan": 3139,
      "Yahudi": 3140,
      "setara": 3141,
      "subur": 3142,
      "mencakup": 3143,
      "saran": 3144,
      "bukanlah": 3145,
      "tahankan": 3146,
      "Kelinci": 3147,
      "Por": 3148,
      "rapi": 3149,
      "anyi": 3150,
      "permuka": 3151,
      "samaan": 3152,
      "kos": 3153,
      "memperoleh": 3154,
      "toran": 3155,
      "keberanian": 3156,
      "gangguan": 3157,
      "mengendarai": 3158,
      "caya": 3159,
      "dinya": 3160,
      "atap": 3161,
      "kesejahteraan": 3162,
      "orak": 3163,
      "tertarik": 3164,
      "sual": 3165,
      "logam": 3166,
      "Yunani": 3167,
      "melestarikan": 3168,
      "menyiapkan": 3169,
      "Ger": 3170,
      "angkah": 3171,
      "angkasa": 3172,
      "inasi": 3173,
      "perselisihan": 3174,
      "bir": 3175,
      "mengira": 3176,
      "sadar": 3177,
      "lebar": 3178,
      "jangka": 3179,
      "pemerintahan": 3180,
      "Demikian": 3181,
      "mendekati": 3182,
      "menara": 3183,
      "listrik": 3184,
      "kuman": 3185,
      "isaran": 3186,
      "esan": 3187,
      "bakar": 3188,
      "tekad": 3189,
      "dibagikan": 3190,
      "memah": 3191,
      "mengk": 3192,
      "tersembunyi": 3193,
      "sul": 3194,
      "medi": 3195,
      "bersiap": 3196,
      "harmonis": 3197,
      "Kem": 3198,
      "gum": 3199,
      "dit": 3200,
      "koin": 3201,
      "serangga": 3202,
      "derita": 3203,
      "jahit": 3204,
      "sipasi": 3205,
      "menghentikan": 3206,
      "Sejarah": 3207,
      "bok": 3208,
      "get": 3209,
      "hot": 3210,
      "perdagangan": 3211,
      "olong": 3212,
      "tifikasi": 3213,
      "darat": 3214,
      "rusak": 3215,
      "Johnson": 3216,
      "berk": 3217,
      "tanyakan": 3218,
      "menurutku": 3219,
      "menyebutkan": 3220,
      "politik": 3221,
      "fik": 3222,
      "gh": 3223,
      "kebe": 3224,
      "menggabungkan": 3225,
      "liburan": 3226,
      "pabrik": 3227,
      "topi": 3228,
      "membela": 3229,
      "ilaian": 3230,
      "jembatan": 3231,
      "Ilmu": 3232,
      "publik": 3233,
      "mit": 3234,
      "walah": 3235,
      "sibuk": 3236,
      "barat": 3237,
      "musuh": 3238,
      "menghemat": 3239,
      "Terus": 3240,
      "mew": 3241,
      "rutin": 3242,
      "tersedia": 3243,
      "prajurit": 3244,
      "frus": 3245,
      "berikutnya": 3246,
      "mengin": 3247,
      "bisakah": 3248,
      "jelajahi": 3249,
      "Fi": 3250,
      "Kore": 3251,
      "ou": 3252,
      "oke": 3253,
      "berhati": 3254,
      "mendengarnya": 3255,
      "gelap": 3256,
      "Korea": 3257,
      "**": 3258,
      "Prancis": 3259,
      "sepenuh": 3260,
      "kegi": 3261,
      "gis": 3262,
      "lab": 3263,
      "mengajarinya": 3264,
      "mengungkapkan": 3265,
      "populer": 3266,
      "ografi": 3267,
      "tuh": 3268,
      "berita": 3269,
      "ketidak": 3270,
      "kura": 3271,
      "pian": 3272,
      "selamat": 3273,
      "ferensi": 3274,
      "gra": 3275,
      "warisan": 3276,
      "berikan": 3277,
      "siapkan": 3278,
      "lambat": 3279,
      "gender": 3280,
      "diskusikan": 3281,
      "Mat": 3282,
      "tana": 3283,
      "tele": 3284,
      "berangkat": 3285,
      "bia": 3286,
      "pengambil": 3287,
      "roda": 3288,
      "Masuk": 3289,
      "nasihat": 3290,
      "menekan": 3291,
      "prinsip": 3292,
      "spesial": 3293,
      "Kakek": 3294,
      "Fo": 3295,
      "Ide": 3296,
      "Psy": 3297,
      "van": 3298,
      "sepu": 3299,
      "dimainkan": 3300,
      "memen": 3301,
      "memotong": 3302,
      "banyakan": 3303,
      "pendengar": 3304,
      "penilaian": 3305,
      "padang": 3306,
      "buhkan": 3307,
      "menunjuk": 3308,
      "kelilingi": 3309,
      "coklat": 3310,
      "kepalanya": 3311,
      "Viet": 3312,
      "permukaan": 3313,
      "En": 3314,
      "Nor": 3315,
      "berjuang": 3316,
      "perdamaian": 3317,
      "sil": 3318,
      "Sebagai": 3319,
      "pegunungan": 3320,
      "tingkat": 3321,
      "memberinya": 3322,
      "mengenal": 3323,
      "cintai": 3324,
      "Alkisah": 3325,
      "demikian": 3326,
      "doa": 3327,
      "bertambahnya": 3328,
      "memahaminya": 3329,
      "menemui": 3330,
      "membagi": 3331,
      "kuk": 3332,
      "meletak": 3333,
      "potensi": 3334,
      "spor": 3335,
      "memasukkan": 3336,
      "diskusi": 3337,
      "Dapat": 3338,
      "Qu": 3339,
      "basan": 3340,
      "rat": 3341,
      "daur": 3342,
      "danau": 3343,
      "obrol": 3344,
      "maju": 3345,
      "konseku": 3346,
      "menguasai": 3347,
      "klub": 3348,
      "sat": 3349,
      "yaitu": 3350,
      "terinspirasi": 3351,
      "dalkan": 3352,
      "karan": 3353,
      "negatif": 3354,
      "Menggunakan": 3355,
      "rambut": 3356,
      "struksi": 3357,
      "identifikasi": 3358,
      "terpisah": 3359,
      "dam": 3360,
      "isu": 3361,
      "sit": 3362,
      "dikelilingi": 3363,
      "berpura": 3364,
      "kehangat": 3365,
      "mengalir": 3366,
      "est": 3367,
      "menghilang": 3368,
      "inding": 3369,
      "menggangg": 3370,
      "Vietnam": 3371,
      "Psik": 3372,
      "Tengah": 3373,
      "hy": 3374,
      "bergantung": 3375,
      "mengisi": 3376,
      "itual": 3377,
      "isy": 3378,
      "menci": 3379,
      "raky": 3380,
      "mengemas": 3381,
      "Daisy": 3382,
      "ab": 3383,
      "titik": 3384,
      "inis": 3385,
      "unjuk": 3386,
      "dela": 3387,
      "his": 3388,
      "kamp": 3389,
      "pir": 3390,
      "mut": 3391,
      "bangsa": 3392,
      "mempertahankan": 3393,
      "misteri": 3394,
      "kendali": 3395,
      "ler": 3396,
      "bijakan": 3397,
      "astil": 3398,
      "Tiba": 3399,
      "psiko": 3400,
      "psikolog": 3401,
      "ayahnya": 3402,
      "kasus": 3403,
      "engkaran": 3404,
      "hotel": 3405,
      "Mom": 3406,
      "Neg": 3407,
      "zi": 3408,
      "berfungsi": 3409,
      "belahan": 3410,
      "membawanya": 3411,
      "jendela": 3412,
      "pasar": 3413,
      "cin": 3414,
      "emasan": 3415,
      "menum": 3416,
      "berolahraga": 3417,
      "kejadi": 3418,
      "jujur": 3419,
      "cky": 3420,
      "Uni": 3421,
      "can": 3422,
      "duga": 3423,
      "Polly": 3424,
      "ood": 3425,
      "membicarakannya": 3426,
      "kekhawatiran": 3427,
      "kebebasan": 3428,
      "kehangatan": 3429,
      "Guru": 3430,
      "Ko": 3431,
      "sh": 3432,
      "ts": 3433,
      "jalanan": 3434,
      "penelitian": 3435,
      "jat": 3436,
      "pl": 3437,
      "​​": 3438,
      "unikan": 3439,
      "koneksi": 3440,
      "indungan": 3441,
      "pertengkaran": 3442,
      "utrisi": 3443,
      "meditasi": 3444,
      "berkunjung": 3445,
      "memenuhi": 3446,
      "Dapatkah": 3447,
      "nal": 3448,
      "taj": 3449,
      "uncur": 3450,
      "dic": 3451,
      "berjudul": 3452,
      "uma": 3453,
      "terkekeh": 3454,
      "erdeka": 3455,
      "pengambilan": 3456,
      "tajam": 3457,
      "Keka": 3458,
      "Oleh": 3459,
      "tanggung": 3460,
      "berfokus": 3461,
      "kekaya": 3462,
      "keunikan": 3463,
      "sikap": 3464,
      "imbangkan": 3465,
      "mencampur": 3466,
      "uniknya": 3467,
      "program": 3468,
      "pemandu": 3469,
      "peliharaan": 3470,
      "Kekaisaran": 3471,
      "Ji": 3472,
      "vin": 3473,
      "ingatan": 3474,
      "suaikan": 3475,
      "onan": 3476,
      "dewa": 3477,
      "kecinta": 3478,
      "menghitung": 3479,
      "gup": 3480,
      "sesat": 3481,
      "paham": 3482,
      "efektif": 3483,
      "memberitahu": 3484,
      "memeluk": 3485,
      "sportasi": 3486,
      "Char": 3487,
      "askan": 3488,
      "kesen": 3489,
      "gugup": 3490,
      "Kudengar": 3491,
      "Katakan": 3492,
      "Green": 3493,
      "walahan": 3494,
      "frustrasi": 3495,
      "DA": 3496,
      "Wi": 3497,
      "pis": 3498,
      "dilihat": 3499,
      "amannya": 3500,
      "berlayar": 3501,
      "mengaku": 3502,
      "sayap": 3503,
      "mempersiapkan": 3504,
      "menyesuaikan": 3505,
      "gereja": 3506,
      "ruf": 3507,
      "Ella": 3508,
      "pakan": 3509,
      "pre": 3510,
      "mendiskusikan": 3511,
      "berkeliling": 3512,
      "lia": 3513,
      "Anna": 3514,
      "paikan": 3515,
      "kalian": 3516,
      "kunci": 3517,
      "Daripada": 3518,
      "mengonsumsi": 3519,
      "mengganggu": 3520,
      "Kota": 3521,
      "Mi": 3522,
      "Th": 3523,
      "ff": 3524,
      "oto": 3525,
      "berupaya": 3526,
      "imp": 3527,
      "lubang": 3528,
      "makna": 3529,
      "mengacu": 3530,
      "mengasy": 3531,
      "kejadian": 3532,
      "Ag": 3533,
      "Fre": 3534,
      "TV": 3535,
      "amanya": 3536,
      "kol": 3537,
      "Sepertinya": 3538,
      "artisipasi": 3539,
      "Selalu": 3540,
      "matanya": 3541,
      "berlaku": 3542,
      "pons": 3543,
      "transportasi": 3544,
      "cayai": 3545,
      "Cu": 3546,
      "che": 3547,
      "leng": 3548,
      "menanti": 3549,
      "tersesat": 3550,
      "uruh": 3551,
      "Sebelum": 3552,
      "bilitas": 3553,
      "kemaju": 3554,
      "tubuhnya": 3555,
      "simpul": 3556,
      "samping": 3557,
      "tarian": 3558,
      "web": 3559,
      "selimut": 3560,
      "ungguh": 3561,
      "sepenuhnya": 3562,
      "?!": 3563,
      "Mong": 3564,
      "Sen": 3565,
      "nutrisi": 3566,
      "anggun": 3567,
      "menempat": 3568,
      "berjam": 3569,
      "terdekat": 3570,
      "teratur": 3571,
      "luh": 3572,
      "tab": 3573,
      "esona": 3574,
      "hidangan": 3575,
      "huruf": 3576,
      "olf": 3577,
      "minyak": 3578,
      "habit": 3579,
      "perlindungan": 3580,
      "Barat": 3581,
      "jerni": 3582,
      "penulis": 3583,
      "Geor": 3584,
      "kekayaan": 3585,
      "Wal": 3586,
      "adanya": 3587,
      "low": 3588,
      "perse": 3589,
      "kewalahan": 3590,
      "terduga": 3591,
      "sihir": 3592,
      "ustr": 3593,
      "katanya": 3594,
      "uangkan": 3595,
      "mengetahuinya": 3596,
      "Mesir": 3597,
      "pusat": 3598,
      "Katakanlah": 3599,
      "Bun": 3600,
      "Ol": 3601,
      "jari": 3602,
      "jek": 3603,
      "asana": 3604,
      "kebijakan": 3605,
      "menyapa": 3606,
      "penye": 3607,
      "Romawi": 3608,
      "menyatukan": 3609,
      "jernih": 3610,
      "cobalah": 3611,
      "damp": 3612,
      "kastil": 3613,
      "rom": 3614,
      "alkan": 3615,
      "beristirahat": 3616,
      "memimpin": 3617,
      "mengapresiasi": 3618,
      "negaranya": 3619,
      "mewah": 3620,
      "catatan": 3621,
      "bereaksi": 3622,
      "mengasyikkan": 3623,
      "Par": 3624,
      "mengidentifikasi": 3625,
      "membuatku": 3626,
      "harapan": 3627,
      "mempesona": 3628,
      "ampuran": 3629,
      "sesama": 3630,
      "ukir": 3631,
      "peti": 3632,
      "petern": 3633,
      "lingkaran": 3634,
      "botol": 3635,
      "mengembali": 3636,
      "imajinasi": 3637,
      "Ch": 3638,
      "ix": 3639,
      "rob": 3640,
      "vir": 3641,
      "terpenting": 3642,
      "suasana": 3643,
      "melu": 3644,
      "bakaran": 3645,
      "situlah": 3646,
      "santai": 3647,
      "keinginan": 3648,
      "kegiatan": 3649,
      "dinding": 3650,
      "lob": 3651,
      "ping": 3652,
      "papan": 3653,
      "presi": 3654,
      "uju": 3655,
      "terjatuh": 3656,
      "sukar": 3657,
      "memerintah": 3658,
      "trans": 3659,
      "Ayo": 3660,
      "Sosial": 3661,
      "cari": 3662,
      "data": 3663,
      "oper": 3664,
      "kacang": 3665,
      "memenangkan": 3666,
      "warn": 3667,
      "bersamaan": 3668,
      "meyakin": 3669,
      "menyerah": 3670,
      "adonan": 3671,
      "kemajuan": 3672,
      "sesi": 3673,
      "peraya": 3674,
      "istana": 3675,
      "ragu": 3676,
      "komik": 3677,
      "minuman": 3678,
      "berpartisipasi": 3679,
      "alasannya": 3680,
      "Cl": 3681,
      "Kur": 3682,
      "Nyo": 3683,
      "non": 3684,
      "net": 3685,
      "emen": 3686,
      "berputar": 3687,
      "ork": 3688,
      "kutu": 3689,
      "jalin": 3690,
      "pemain": 3691,
      "menyeimbangkan": 3692,
      "bersihan": 3693,
      "Owlbert": 3694,
      "Laut": 3695,
      "Nyonya": 3696,
      "dibangun": 3697,
      "berganti": 3698,
      "jarum": 3699,
      "kriminasi": 3700,
      "Islam": 3701,
      "perayaan": 3702,
      "Mek": 3703,
      "hampir": 3704,
      "icu": 3705,
      "mela": 3706,
      "top": 3707,
      "konyol": 3708,
      "menuliskan": 3709,
      "namanya": 3710,
      "memetik": 3711,
      "erdekaan": 3712,
      "ron": 3713,
      "mengarah": 3714,
      "menggel": 3715,
      "kokoh": 3716,
      "omor": 3717,
      "roh": 3718,
      "astik": 3719,
      "sejati": 3720,
      "tival": 3721,
      "kursi": 3722,
      "igasi": 3723,
      "Jiwa": 3724,
      "peternakan": 3725,
      "Pri": 3726,
      "aroma": 3727,
      "tuhan": 3728,
      "ungannya": 3729,
      "ribu": 3730,
      "hiasan": 3731,
      "media": 3732,
      "lukisan": 3733,
      "pahaman": 3734,
      "lokasi": 3735,
      "Petani": 3736,
      "Sayangnya": 3737,
      "Clara": 3738,
      "Hi": 3739,
      "Sungguh": 3740,
      "ds": 3741,
      "oga": 3742,
      "pres": 3743,
      "mend": 3744,
      "diaj": 3745,
      "berbin": 3746,
      "kagum": 3747,
      "kepadaku": 3748,
      "ketahanan": 3749,
      "ity": 3750,
      "jawaban": 3751,
      "pemilik": 3752,
      "Peran": 3753,
      "Bagi": 3754,
      "daratan": 3755,
      "hormati": 3756,
      "kesalahpahaman": 3757,
      "berkilauan": 3758,
      "mengandalkan": 3759,
      "Wil": 3760,
      "nosis": 3761,
      "temui": 3762,
      "diberikan": 3763,
      "budakan": 3764,
      "kolam": 3765,
      "membuang": 3766,
      "harinya": 3767,
      "membutuhkannya": 3768,
      "sepakat": 3769,
      "memasuki": 3770,
      "Teruslah": 3771,
      "meletakkan": 3772,
      "lobal": 3773,
      "Pan": 3774,
      "wakan": 3775,
      "alan": 3776,
      "kabar": 3777,
      "budak": 3778,
      "merang": 3779,
      "lepas": 3780,
      "museum": 3781,
      "egah": 3782,
      "mempro": 3783,
      "diskriminasi": 3784,
      "pasukan": 3785,
      "kakinya": 3786,
      "lapar": 3787,
      "telepon": 3788,
      "perkem": 3789,
      "menghi": 3790,
      "usun": 3791,
      "mengha": 3792,
      "Suka": 3793,
      "trik": 3794,
      "ipta": 3795,
      "gambaran": 3796,
      "Halo": 3797,
      "perleng": 3798,
      "Ne": 3799,
      "jantung": 3800,
      "imbang": 3801,
      "asis": 3802,
      "alia": 3803,
      "avigasi": 3804,
      "sayangku": 3805,
      "versi": 3806,
      "restoran": 3807,
      "--------": 3808,
      "mencuci": 3809,
      "Con": 3810,
      "ac": 3811,
      "atria": 3812,
      "bersejarah": 3813,
      "hatinya": 3814,
      "menjadikannya": 3815,
      "lingkungannya": 3816,
      "inklusi": 3817,
      "sungguh": 3818,
      "Iran": 3819,
      "Jen": 3820,
      "Mia": 3821,
      "ble": 3822,
      "pastikan": 3823,
      "sekelas": 3824,
      "tion": 3825,
      "biaya": 3826,
      "daki": 3827,
      "dakah": 3828,
      "belan": 3829,
      "petunjuk": 3830,
      "imanapun": 3831,
      "butuh": 3832,
      "struktur": 3833,
      "20": 3834,
      "Bo": 3835,
      "megah": 3836,
      "berbulu": 3837,
      "kebanyakan": 3838,
      "mengil": 3839,
      "tukar": 3840,
      "kartu": 3841,
      "kering": 3842,
      "tanam": 3843,
      "self": 3844,
      "artikel": 3845,
      "airan": 3846,
      "menerus": 3847,
      "camata": 3848,
      "ekspresi": 3849,
      "ksatria": 3850,
      "Keluar": 3851,
      "periode": 3852,
      "ugikan": 3853,
      "dimakan": 3854,
      "signi": 3855,
      "itur": 3856,
      "Alam": 3857,
      "perlengkapan": 3858,
      "fikan": 3859,
      "hum": 3860,
      "sent": 3861,
      "tun": 3862,
      "menggerak": 3863,
      "siapan": 3864,
      "mur": 3865,
      "siko": 3866,
      "petak": 3867,
      "lapangan": 3868,
      "plastik": 3869,
      "Meksiko": 3870,
      "signifikan": 3871,
      "ciri": 3872,
      "sang": 3873,
      "menavigasi": 3874,
      "seke": 3875,
      "sepulang": 3876,
      "berpakaian": 3877,
      "iklim": 3878,
      "gil": 3879,
      "temanku": 3880,
      "tangga": 3881,
      "impian": 3882,
      "pribadian": 3883,
      "juangkan": 3884,
      "kritis": 3885,
      "Perancis": 3886,
      "Bra": 3887,
      "Ru": 3888,
      "campuran": 3889,
      "inilah": 3890,
      "menentu": 3891,
      "dianggap": 3892,
      "berdoa": 3893,
      "perbudakan": 3894,
      "jadinya": 3895,
      "ladang": 3896,
      "benua": 3897,
      "Merasa": 3898,
      "lintas": 3899,
      "soal": 3900,
      "lapisan": 3901,
      "menempel": 3902,
      "koloni": 3903,
      "menempatkan": 3904,
      "robot": 3905,
      "ribuan": 3906,
      "Mus": 3907,
      "Or": 3908,
      "lompat": 3909,
      "tin": 3910,
      "teng": 3911,
      "za": 3912,
      "ator": 3913,
      "tusi": 3914,
      "bersekolah": 3915,
      "bersembunyi": 3916,
      "lewat": 3917,
      "kolab": 3918,
      "tadi": 3919,
      "Kedua": 3920,
      "kenya": 3921,
      "harusnya": 3922,
      "bosan": 3923,
      "tivasi": 3924,
      "ANDA": 3925,
      "Ju": 3926,
      "norm": 3927,
      "menen": 3928,
      "die": 3929,
      "diterima": 3930,
      "kacamata": 3931,
      "bicarakan": 3932,
      "lip": 3933,
      "patung": 3934,
      "melem": 3935,
      "melupakan": 3936,
      "umat": 3937,
      "lainya": 3938,
      "sangatlah": 3939,
      "kesetara": 3940,
      "kesepian": 3941,
      "harmoni": 3942,
      "habitat": 3943,
      "Br": 3944,
      "Nasi": 3945,
      "tut": 3946,
      "harapkan": 3947,
      "bangkit": 3948,
      "Bagaimanapun": 3949,
      "Joe": 3950,
      "dipahami": 3951,
      "sifat": 3952,
      "konsekuensi": 3953,
      "kesetaraan": 3954,
      "Boleh": 3955,
      "Fel": 3956,
      "Pel": 3957,
      "misalnya": 3958,
      "anda": 3959,
      "sebaiknya": 3960,
      "ingkat": 3961,
      "terkait": 3962,
      "maaf": 3963,
      "menyadarinya": 3964,
      "pela": 3965,
      "ponsel": 3966,
      "Portu": 3967,
      "mengakui": 3968,
      "Com": 3969,
      "Fak": 3970,
      "Makan": 3971,
      "Tempat": 3972,
      "ddy": 3973,
      "pit": 3974,
      "menik": 3975,
      "dise": 3976,
      "alunya": 3977,
      "berlangsung": 3978,
      "memo": 3979,
      "perencana": 3980,
      "perairan": 3981,
      "terdiri": 3982,
      "tembok": 3983,
      "dahan": 3984,
      "nyanyi": 3985,
      "ekonomi": 3986,
      "otot": 3987,
      "sekedar": 3988,
      "menentukan": 3989,
      "Adakah": 3990,
      "Ha": 3991,
      "ania": 3992,
      "bermimpi": 3993,
      "kebakaran": 3994,
      "terbentuk": 3995,
      "umpet": 3996,
      "sensi": 3997,
      "kecilnya": 3998,
      "memperjuangkan": 3999,
      "trol": 4000,
      "membayar": 4001,
      "tekan": 4002,
      "Berbagi": 4003,
      "dasarnya": 4004,
      "tips": 4005,
      "kesayangan": 4006,
      "Cat": 4007,
      "bent": 4008,
      "ful": 4009,
      "lor": 4010,
      "dandan": 4011,
      "liang": 4012,
      "onstr": 4013,
      "manan": 4014,
      "batin": 4015,
      "hargaan": 4016,
      "demonstr": 4017,
      "bukti": 4018,
      "menyerang": 4019,
      "bersyukur": 4020,
      "mengkil": 4021,
      "ibuku": 4022,
      "nes": 4023,
      "menjalin": 4024,
      "uno": 4025,
      "berlebih": 4026,
      "merugikan": 4027,
      "dengarkan": 4028,
      "ombang": 4029,
      "keman": 4030,
      "Finlandia": 4031,
      "menetapkan": 4032,
      "melukai": 4033,
      "belanja": 4034,
      "\"?": 4035,
      "sti": 4036,
      "ye": 4037,
      "bertukar": 4038,
      "temanmu": 4039,
      "ation": 4040,
      "ome": 4041,
      "pedom": 4042,
      "batang": 4043,
      "ilingi": 4044,
      "menyampaikan": 4045,
      "Poin": 4046,
      "Mindy": 4047,
      "ujud": 4048,
      "Lat": 4049,
      "Tentang": 4050,
      "sitas": 4051,
      "was": 4052,
      "zanti": 4053,
      "eminis": 4054,
      "seharusnya": 4055,
      "diambil": 4056,
      "dihargai": 4057,
      "memamer": 4058,
      "terben": 4059,
      "dukan": 4060,
      "ety": 4061,
      "bisik": 4062,
      "mengejut": 4063,
      "ematika": 4064,
      "normal": 4065,
      "Bolehkah": 4066,
      "pedoman": 4067,
      "zantium": 4068,
      ".'": 4069,
      "Jam": 4070,
      "cel": 4071,
      "campur": 4072,
      "ansi": 4073,
      "diran": 4074,
      "dibawa": 4075,
      "tupi": 4076,
      "kejutan": 4077,
      "sains": 4078,
      "panduan": 4079,
      "membac": 4080,
      "cipi": 4081,
      "mengatasinya": 4082,
      "kuning": 4083,
      "mengurus": 4084,
      "kenyamanan": 4085,
      "Sangat": 4086,
      "kor": 4087,
      "las": 4088,
      "menatap": 4089,
      "berte": 4090,
      "berlalu": 4091,
      "meres": 4092,
      "beban": 4093,
      "kerang": 4094,
      "elajarinya": 4095,
      "rael": 4096,
      "mempelajarinya": 4097,
      "bukannya": 4098,
      "gurun": 4099,
      "Kerajaan": 4100,
      "mengukur": 4101,
      "Israel": 4102,
      "Turki": 4103,
      "Negara": 4104,
      "Chir": 4105,
      "Seg": 4106,
      "rin": 4107,
      "sok": 4108,
      "tlandia": 4109,
      "art": 4110,
      "mendaki": 4111,
      "tul": 4112,
      "kecepat": 4113,
      "isar": 4114,
      "kelah": 4115,
      "kencang": 4116,
      "dekatan": 4117,
      "unjukkan": 4118,
      "neneknya": 4119,
      "berlarian": 4120,
      "jejak": 4121,
      "menghilangkan": 4122,
      "menggerakkan": 4123,
      "!)": 4124,
      "tamu": 4125,
      "”,": 4126,
      "diken": 4127,
      "berpindah": 4128,
      "pos": 4129,
      "sarang": 4130,
      "menyeberang": 4131,
      "tualang": 4132,
      "pasang": 4133,
      "komunitasnya": 4134,
      "gelombang": 4135,
      "cho": 4136,
      "monyet": 4137,
      "memanfaat": 4138,
      "menangis": 4139,
      "kesayangannya": 4140,
      "kampung": 4141,
      "kolaborasi": 4142,
      "Oak": 4143,
      "Taman": 4144,
      "mini": 4145,
      "wal": 4146,
      "anjutan": 4147,
      "kesuka": 4148,
      "kesamaan": 4149,
      "merindu": 4150,
      "iking": 4151,
      "inga": 4152,
      "Ang": 4153,
      "sug": 4154,
      "esta": 4155,
      "pembuatan": 4156,
      "gul": 4157,
      "bingungan": 4158,
      "eksplorasi": 4159,
      "mengubahnya": 4160,
      "memanjat": 4161,
      "sinyal": 4162,
      "rutinitas": 4163,
      "dampingan": 4164,
      "Chirpy": 4165,
      "fa": 4166,
      "global": 4167,
      "jikan": 4168,
      "ruk": 4169,
      "alisme": 4170,
      "berdampingan": 4171,
      "astr": 4172,
      "daf": 4173,
      "kebingungan": 4174,
      "biarkan": 4175,
      "Angg": 4176,
      "dahal": 4177,
      "enaga": 4178,
      "Terapi": 4179,
      "resep": 4180,
      "los": 4181,
      "ucon": 4182,
      "posisi": 4183,
      "melambangkan": 4184,
      "sekelilingnya": 4185,
      "humor": 4186,
      "Nasional": 4187,
      "memamerkan": 4188,
      "dirancang": 4189,
      "Fe": 4190,
      "Sh": 4191,
      "lakan": 4192,
      "rek": 4193,
      "seimbang": 4194,
      "mula": 4195,
      "penghargaan": 4196,
      "matematika": 4197,
      "rup": 4198,
      "jamkan": 4199,
      "mengelilingi": 4200,
      "andung": 4201,
      "Sementara": 4202,
      "rendah": 4203,
      "petualangannya": 4204,
      "cangkang": 4205,
      "lelucon": 4206,
      "sukarel": 4207,
      "Hel": 4208,
      "Pat": 4209,
      "Sara": 4210,
      "ujian": 4211,
      "anc": 4212,
      "dipelajari": 4213,
      "Sepanjang": 4214,
      "konteks": 4215,
      "tepatnya": 4216,
      "menggambarkan": 4217,
      "satwa": 4218,
      "berlebihan": 4219,
      "merespons": 4220,
      "'?\"": 4221,
      "Kris": 4222,
      "Rum": 4223,
      "Sko": 4224,
      "Tunggu": 4225,
      "abu": 4226,
      "cal": 4227,
      "usi": 4228,
      "kawasan": 4229,
      "baju": 4230,
      "terkasih": 4231,
      "ariku": 4232,
      "polisi": 4233,
      "berpegangan": 4234,
      "berkelanjutan": 4235,
      "memberitah": 4236,
      "mencicipi": 4237,
      "perencanaan": 4238,
      "Skotlandia": 4239,
      "Bet": 4240,
      "Bes": 4241,
      "Du": 4242,
      "Ho": 4243,
      "Hanya": 4244,
      "bri": 4245,
      "wol": 4246,
      "sebelah": 4247,
      "berburu": 4248,
      "bijian": 4249,
      "tersisi": 4250,
      "terbatas": 4251,
      "imat": 4252,
      "imbal": 4253,
      "etnis": 4254,
      "akuan": 4255,
      "pedulian": 4256,
      "jurnal": 4257,
      "membahas": 4258,
      "sitek": 4259,
      "terbenam": 4260,
      "tersisih": 4261,
      "Ad": 4262,
      "Coba": 4263,
      "Eli": 4264,
      "des": 4265,
      "menahan": 4266,
      "diminta": 4267,
      "bernyanyi": 4268,
      "perju": 4269,
      "merek": 4270,
      "gia": 4271,
      "dirikan": 4272,
      "pember": 4273,
      "berpikiran": 4274,
      "berlalunya": 4275,
      "senyuman": 4276,
      "maksudmu": 4277,
      "tanggal": 4278,
      "zzy": 4279,
      "mark": 4280,
      "meminum": 4281,
      "memanfaatkan": 4282,
      "Haha": 4283,
      "Mon": 4284,
      "Sau": 4285,
      "embung": 4286,
      "diter": 4287,
      "dikatakan": 4288,
      "dayanya": 4289,
      "kebersihan": 4290,
      "mengobrol": 4291,
      "label": 4292,
      "suhu": 4293,
      "halamannya": 4294,
      "gunting": 4295,
      "pengh": 4296,
      "khususnya": 4297,
      "batuan": 4298,
      "janjian": 4299,
      "festival": 4300,
      "untungan": 4301,
      "neur": 4302,
      "Fox": 4303,
      "His": 4304,
      "Kata": 4305,
      "San": 4306,
      "Smit": 4307,
      "Tilly": 4308,
      "dipercaya": 4309,
      "tutup": 4310,
      "kepribadian": 4311,
      "kepedulian": 4312,
      "bekas": 4313,
      "jus": 4314,
      "barkan": 4315,
      "menyuruh": 4316,
      "menyusun": 4317,
      "urus": 4318,
      "kecemasan": 4319,
      "pedagang": 4320,
      "tetangg": 4321,
      "pemec": 4322,
      "Buku": 4323,
      "matang": 4324,
      "materi": 4325,
      "eksperi": 4326,
      "memperbaikinya": 4327,
      "Hewan": 4328,
      "ght": 4329,
      "Charlie": 4330,
      "Keluarga": 4331,
      "Smith": 4332,
      "Str": 4333,
      "To": 4334,
      "zy": 4335,
      "menderita": 4336,
      "disa": 4337,
      "berku": 4338,
      "sau": 4339,
      "pembuat": 4340,
      "desaan": 4341,
      "ibumu": 4342,
      "telur": 4343,
      "dampaknya": 4344,
      "napasan": 4345,
      "rempah": 4346,
      "bersorak": 4347,
      "mencuri": 4348,
      "jahitan": 4349,
      "Ap": 4350,
      "Fri": 4351,
      "Gu": 4352,
      "fleksi": 4353,
      "menur": 4354,
      "berbisik": 4355,
      "bertualang": 4356,
      "kedamaian": 4357,
      "gaun": 4358,
      "wadah": 4359,
      "usakan": 4360,
      "Suri": 4361,
      "anggar": 4362,
      "gua": 4363,
      "menyalakan": 4364,
      "sedihan": 4365,
      "tipis": 4366,
      "mahal": 4367,
      "Psikologi": 4368,
      "suguhan": 4369,
      "Besar": 4370,
      "Lu": 4371,
      "Pastikan": 4372,
      "Spir": 4373,
      "tampil": 4374,
      "ditulis": 4375,
      "dihormati": 4376,
      "apapun": 4377,
      "gajah": 4378,
      "kut": 4379,
      "pensil": 4380,
      "kerusakan": 4381,
      "kemerdekaan": 4382,
      "lemah": 4383,
      "mengambilnya": 4384,
      "simpan": 4385,
      "likasi": 4386,
      "tokoh": 4387,
      "kasar": 4388,
      "menyelamat": 4389,
      "Pulau": 4390,
      "penguasa": 4391,
      "Psyche": 4392,
      "daftar": 4393,
      "Pi": 4394,
      "memikir": 4395,
      "arikan": 4396,
      "libur": 4397,
      "rileks": 4398,
      "pening": 4399,
      "urat": 4400,
      "reaksi": 4401,
      "atasnya": 4402,
      "gelembung": 4403,
      "jaringan": 4404,
      "spiritual": 4405,
      "penyem": 4406,
      "tombol": 4407,
      "mengejutkan": 4408,
      "memikirkannya": 4409,
      "Bah": 4410,
      "Chi": 4411,
      "Dav": 4412,
      "Squ": 4413,
      "cipta": 4414,
      "ey": 4415,
      "ves": 4416,
      "mema": 4417,
      "lebah": 4418,
      "suri": 4419,
      "tidaklah": 4420,
      "pulan": 4421,
      "padahal": 4422,
      "ree": 4423,
      "osil": 4424,
      "basah": 4425,
      "disebabkan": 4426,
      "Anggap": 4427,
      "Kapan": 4428,
      "bersantai": 4429,
      "pernapasan": 4430,
      "bila": 4431,
      "mero": 4432,
      "penjaga": 4433,
      "ayam": 4434,
      "arahan": 4435,
      "rusa": 4436,
      "sahabatnya": 4437,
      "ketegangan": 4438,
      "piknik": 4439,
      "produksi": 4440,
      "mendekatkan": 4441,
      "eksperimen": 4442,
      "menyelamatkan": 4443,
      "'?": 4444,
      "Na": 4445,
      "Pal": 4446,
      "rasakan": 4447,
      "tro": 4448,
      "via": 4449,
      "arsitek": 4450,
      "atkan": 4451,
      "instruksi": 4452,
      "menyang": 4453,
      "mendemonstr": 4454,
      "diberi": 4455,
      "membandingkan": 4456,
      "adaban": 4457,
      "emudi": 4458,
      "lut": 4459,
      "rid": 4460,
      "pandai": 4461,
      "mandi": 4462,
      "pecah": 4463,
      "agak": 4464,
      "jahatan": 4465,
      "risiko": 4466,
      "versitas": 4467,
      "dinikmati": 4468,
      "Finley": 4469,
      "help": 4470,
      "Komunikasi": 4471,
      "membagikannya": 4472,
      "sukarelawan": 4473,
      "tetangganya": 4474,
      "Ab": 4475,
      "Pikirkan": 4476,
      "Ratu": 4477,
      "cangan": 4478,
      "kir": 4479,
      "bajak": 4480,
      "bekal": 4481,
      "entasi": 4482,
      "sarapan": 4483,
      "pengobatan": 4484,
      "hidupnya": 4485,
      "kateg": 4486,
      "yarat": 4487,
      "dingan": 4488,
      "spesifik": 4489,
      "terkik": 4490,
      "Fiona": 4491,
      "tablet": 4492,
      "Faktanya": 4493,
      "bertepuk": 4494,
      "rukun": 4495,
      "Lagi": 4496,
      "Rasanya": 4497,
      "mal": 4498,
      "pannya": 4499,
      "piring": 4500,
      "syukur": 4501,
      "tangg": 4502,
      "berkualitas": 4503,
      "memindah": 4504,
      "persiapan": 4505,
      "ajaran": 4506,
      "alib": 4507,
      "kecerd": 4508,
      "mengajariku": 4509,
      "cial": 4510,
      "stru": 4511,
      "mengejar": 4512,
      "seksual": 4513,
      "kecerdasan": 4514,
      "Era": 4515,
      "Mis": 4516,
      "lak": 4517,
      "visi": 4518,
      "beruntung": 4519,
      "ikil": 4520,
      "atuhkan": 4521,
      "Bobby": 4522,
      "puas": 4523,
      "belas": 4524,
      "kecan": 4525,
      "menjatuhkan": 4526,
      "naf": 4527,
      "Menjadi": 4528,
      "memandu": 4529,
      "mig": 4530,
      "menggali": 4531,
      "Bizantium": 4532,
      "menebak": 4533,
      "Manusia": 4534,
      "mewujud": 4535,
      "merangkul": 4536,
      "terkikik": 4537,
      "?'": 4538,
      "dd": 4539,
      "psi": 4540,
      "tenaga": 4541,
      "vas": 4542,
      "bernapas": 4543,
      "peradaban": 4544,
      "kesedihan": 4545,
      "laba": 4546,
      "ungnya": 4547,
      "iran": 4548,
      "dup": 4549,
      "meluangkan": 4550,
      "kerikil": 4551,
      "menyir": 4552,
      "membuatmu": 4553,
      "ihatannya": 4554,
      "rab": 4555,
      "Perasaan": 4556,
      "mempercayai": 4557,
      "ongan": 4558,
      "istik": 4559,
      "ayun": 4560,
      "mengingatkannya": 4561,
      "sinilah": 4562,
      "memasang": 4563,
      "surya": 4564,
      "Baru": 4565,
      "mencampurkan": 4566,
      "sentrasi": 4567,
      "Dis": 4568,
      "Studi": 4569,
      "Tra": 4570,
      "bom": 4571,
      "cinya": 4572,
      "okan": 4573,
      "sasi": 4574,
      "analisis": 4575,
      "digit": 4576,
      "tulang": 4577,
      "berulang": 4578,
      "permasalah": 4579,
      "keahli": 4580,
      "kejahatan": 4581,
      "mengun": 4582,
      "melarikan": 4583,
      "pena": 4584,
      "dahkan": 4585,
      "pedang": 4586,
      "ranting": 4587,
      "menjauh": 4588,
      "memukul": 4589,
      "teh": 4590,
      "tebal": 4591,
      "teori": 4592,
      "kamera": 4593,
      "melambaikan": 4594,
      "preferensi": 4595,
      "mengembalikan": 4596,
      "Segera": 4597,
      "kecanduan": 4598,
      "Irak": 4599,
      "York": 4600,
      "cana": 4601,
      "cender": 4602,
      "stri": 4603,
      "inov": 4604,
      "selain": 4605,
      "bay": 4606,
      "mengandung": 4607,
      "lian": 4608,
      "apaian": 4609,
      "emur": 4610,
      "juk": 4611,
      "mul": 4612,
      "penja": 4613,
      "pengungsi": 4614,
      "antas": 4615,
      "naga": 4616,
      "memulainya": 4617,
      "rekan": 4618,
      "kalimat": 4619,
      "zza": 4620,
      "remaja": 4621,
      "membahayakan": 4622,
      "rakyat": 4623,
      "menghibur": 4624,
      "kecepatan": 4625,
      "Suriah": 4626,
      "cenderung": 4627,
      "Bal": 4628,
      "Cer": 4629,
      "Fran": 4630,
      "Iya": 4631,
      "Rob": 4632,
      "Ye": 4633,
      "gani": 4634,
      "latih": 4635,
      "no": 4636,
      "nikmati": 4637,
      "akim": 4638,
      "yangan": 4639,
      "itkan": 4640,
      "duh": 4641,
      "kerugi": 4642,
      "menemukannya": 4643,
      "konsentrasi": 4644,
      "cabang": 4645,
      "pelindung": 4646,
      "sand": 4647,
      "Masing": 4648,
      "pertandingan": 4649,
      "sungguhan": 4650,
      "memberitahuku": 4651,
      "Hen": 4652,
      "fosil": 4653,
      "nomor": 4654,
      "ral": 4655,
      "sas": 4656,
      "stan": 4657,
      "arung": 4658,
      "gizi": 4659,
      "cetak": 4660,
      "petugas": 4661,
      "seragam": 4662,
      "anggang": 4663,
      "imaan": 4664,
      "Beruang": 4665,
      "gurunya": 4666,
      "Harus": 4667,
      "pesona": 4668,
      "Hmmm": 4669,
      "mengganti": 4670,
      "Kelompok": 4671,
      "Revolusi": 4672,
      "pencapaian": 4673,
      "vinsi": 4674,
      "bergantian": 4675,
      "diajarkan": 4676,
      "merindukan": 4677,
      "berkuasa": 4678,
      "kerugian": 4679,
      "As": 4680,
      "Ms": 4681,
      "Mala": 4682,
      "ibarat": 4683,
      "otip": 4684,
      "ph": 4685,
      "periksa": 4686,
      "mengikat": 4687,
      "meluncur": 4688,
      "pukan": 4689,
      "sentuhan": 4690,
      "semesta": 4691,
      "memudahkan": 4692,
      "mendapati": 4693,
      "pele": 4694,
      "pasangan": 4695,
      "menutupi": 4696,
      "bungkus": 4697,
      "Harry": 4698,
      "hadir": 4699,
      "Republik": 4700,
      "Semoga": 4701,
      "singkat": 4702,
      "At": 4703,
      "Flu": 4704,
      "Gra": 4705,
      "Kind": 4706,
      "Rem": 4707,
      "blok": 4708,
      "golf": 4709,
      "pangan": 4710,
      "menoleh": 4711,
      "diinginkan": 4712,
      "berant": 4713,
      "kandung": 4714,
      "perangan": 4715,
      "juta": 4716,
      "pot": 4717,
      "ombak": 4718,
      "pec": 4719,
      "Mengingat": 4720,
      "internet": 4721,
      "mundur": 4722,
      "terlupakan": 4723,
      "teriak": 4724,
      "Sunny": 4725,
      "menumbuhkan": 4726,
      "Felix": 4727,
      "Latin": 4728,
      "peningkatan": 4729,
      "Dok": 4730,
      "deka": 4731,
      "gor": 4732,
      "gung": 4733,
      "misi": 4734,
      "satunya": 4735,
      "vari": 4736,
      "eran": 4737,
      "akaan": 4738,
      "und": 4739,
      "didik": 4740,
      "alak": 4741,
      "berga": 4742,
      "berencana": 4743,
      "berdandan": 4744,
      "apak": 4745,
      "saf": 4746,
      "lir": 4747,
      "pizza": 4748,
      "kalangan": 4749,
      "konsel": 4750,
      "jauhan": 4751,
      "Tex": 4752,
      "visual": 4753,
      "bukitan": 4754,
      "Que": 4755,
      "misterius": 4756,
      "kutub": 4757,
      "mengkilat": 4758,
      "pemecahan": 4759,
      "Kari": 4760,
      "Samu": 4761,
      "Sip": 4762,
      "cem": 4763,
      "yung": 4764,
      "yikan": 4765,
      "enangan": 4766,
      "ambut": 4767,
      "berbuat": 4768,
      "berdekatan": 4769,
      "bergizi": 4770,
      "kainya": 4771,
      "mengizinkan": 4772,
      "terje": 4773,
      "gigit": 4774,
      "besi": 4775,
      "besok": 4776,
      "kumen": 4777,
      "melanggar": 4778,
      "yakini": 4779,
      "dedik": 4780,
      "pengem": 4781,
      "raf": 4782,
      "kemana": 4783,
      "menjalankan": 4784,
      "dulunya": 4785,
      "semacamnya": 4786,
      "mendatangkan": 4787,
      "Pohon": 4788,
      "meyakinkan": 4789,
      "permasalahan": 4790,
      "Haruskah": 4791,
      "Fluff": 4792,
      "Kam": 4793,
      "gelas": 4794,
      "jaran": 4795,
      "mimp": 4796,
      "menambah": 4797,
      "beres": 4798,
      "beralih": 4799,
      "kantong": 4800,
      "memung": 4801,
      "perbukitan": 4802,
      "kekaca": 4803,
      "mengaw": 4804,
      "istan": 4805,
      "akurat": 4806,
      "puncak": 4807,
      "hubungi": 4808,
      "teruslah": 4809,
      "antaranya": 4810,
      "miliknya": 4811,
      "menganalisis": 4812,
      "tegak": 4813,
      "untungkan": 4814,
      "psikoterapi": 4815,
      "warnai": 4816,
      "memberitahunya": 4817,
      "merokok": 4818,
      "berantakan": 4819,
      "Ais": 4820,
      "IS": 4821,
      "On": 4822,
      "Otak": 4823,
      "don": 4824,
      "fel": 4825,
      "fitur": 4826,
      "kunjungi": 4827,
      "seberang": 4828,
      "ampun": 4829,
      "bermakna": 4830,
      "dana": 4831,
      "perbaikan": 4832,
      "perhiasan": 4833,
      "menggem": 4834,
      "sup": 4835,
      "cetakan": 4836,
      "mulut": 4837,
      "hid": 4838,
      "hiburan": 4839,
      "pikirannya": 4840,
      "artis": 4841,
      "logi": 4842,
      "tampaknya": 4843,
      "Penduduk": 4844,
      "wich": 4845,
      "Rose": 4846,
      "menyerap": 4847,
      "Jac": 4848,
      "rune": 4849,
      "terkena": 4850,
      "kosong": 4851,
      "ness": 4852,
      "rintangan": 4853,
      "Spirit": 4854,
      "migrasi": 4855,
      "kekacauan": 4856,
      "Bang": 4857,
      "Es": 4858,
      "Nona": 4859,
      "cor": 4860,
      "olia": 4861,
      "raya": 4862,
      "vit": 4863,
      "inti": 4864,
      "dimiliki": 4865,
      "altern": 4866,
      "berkulit": 4867,
      "tiup": 4868,
      "tikus": 4869,
      "aplikasi": 4870,
      "mengi": 4871,
      "kotor": 4872,
      "bendera": 4873,
      "pantas": 4874,
      "pengen": 4875,
      "memperluas": 4876,
      "indahnya": 4877,
      "servasi": 4878,
      "gugur": 4879,
      "cau": 4880,
      "singa": 4881,
      "tekstur": 4882,
      "Gerakan": 4883,
      "kesenjangan": 4884,
      "melayang": 4885,
      "perjuangan": 4886,
      "Karibia": 4887,
      "alternatif": 4888,
      "Kap": 4889,
      "dini": 4890,
      "dong": 4891,
      "mek": 4892,
      "odi": 4893,
      "mendaur": 4894,
      "berpelukan": 4895,
      "elakaan": 4896,
      "budayanya": 4897,
      "kesukses": 4898,
      "menguntungkan": 4899,
      "terbesar": 4900,
      "tercinta": 4901,
      "melainkan": 4902,
      "umur": 4903,
      "membuk": 4904,
      "kecelakaan": 4905,
      "membaginya": 4906,
      "mainanmu": 4907,
      "Berbicara": 4908,
      "pelangi": 4909,
      "seringkali": 4910,
      "istimewanya": 4911,
      "memaksa": 4912,
      "daging": 4913,
      "tulisan": 4914,
      "menganggapnya": 4915,
      "meminjam": 4916,
      "Leo": 4917,
      "menyedihkan": 4918,
      "menantikan": 4919,
      "Mongolia": 4920,
      "Bunny": 4921,
      "Hidup": 4922,
      "penyembuhan": 4923,
      "memindahkan": 4924,
      "Austr": 4925,
      "Clo": 4926,
      "Pa": 4927,
      "Whis": 4928,
      "pil": 4929,
      "zon": 4930,
      "ater": 4931,
      "menawan": 4932,
      "berpenampilan": 4933,
      "dap": 4934,
      "dapur": 4935,
      "til": 4936,
      "organi": 4937,
      "kuil": 4938,
      "murah": 4939,
      "kecu": 4940,
      "mandiri": 4941,
      "aih": 4942,
      "olak": 4943,
      "medis": 4944,
      "mewarnai": 4945,
      "motivasi": 4946,
      "ampaknya": 4947,
      "lindungi": 4948,
      "menyukainya": 4949,
      "memelihara": 4950,
      "menyembuhkan": 4951,
      "hambatan": 4952,
      "Ollie": 4953,
      "kategori": 4954,
      "sandwich": 4955,
      "bergaul": 4956,
      "Texas": 4957,
      "memungut": 4958,
      "Australia": 4959,
      "organisir": 4960,
      "Am": 4961,
      "Mata": 4962,
      "Yu": 4963,
      "emos": 4964,
      "menentang": 4965,
      "tuamu": 4966,
      "tikan": 4967,
      "perhatikan": 4968,
      "melaju": 4969,
      "ajak": 4970,
      "madu": 4971,
      "tank": 4972,
      "tempatnya": 4973,
      "peperangan": 4974,
      "utar": 4975,
      "Benji": 4976,
      "awasan": 4977,
      "alamannya": 4978,
      "osiasi": 4979,
      "penerimaan": 4980,
      "kecintaannya": 4981,
      "menghadiri": 4982,
      "pelaut": 4983,
      "Dokter": 4984,
      "St": 4985,
      "Tah": 4986,
      "Ukra": 4987,
      "linya": 4988,
      "arungan": 4989,
      "arki": 4990,
      "menungg": 4991,
      "berbentuk": 4992,
      "elek": 4993,
      "wai": 4994,
      "way": 4995,
      "magis": 4996,
      "putri": 4997,
      "kode": 4998,
      "penju": 4999,
      "penderita": 5000,
      "bencana": 5001,
      "selangkah": 5002,
      "pengalamannya": 5003,
      "tumpukan": 5004,
      "pertarungan": 5005,
      "Tupai": 5006,
      "mengabaikan": 5007,
      "otaknya": 5008,
      "dorongan": 5009,
      "menabung": 5010,
      "dokumen": 5011,
      "rakyatnya": 5012,
      "kecintaan": 5013,
      "George": 5014,
      "Kristen": 5015,
      "Saudara": 5016,
      "kesuksesan": 5017,
      "Gun": 5018,
      "ID": 5019,
      "Lantas": 5020,
      "Makhluk": 5021,
      "Tel": 5022,
      "nar": 5023,
      "atakan": 5024,
      "ahi": 5025,
      "berbakat": 5026,
      "berkendara": 5027,
      "berteriak": 5028,
      "perma": 5029,
      "oritas": 5030,
      "suci": 5031,
      "musisi": 5032,
      "menyikat": 5033,
      "atikan": 5034,
      "percayai": 5035,
      "monster": 5036,
      "dirimu": 5037,
      "odasi": 5038,
      "diksi": 5039,
      "Biasanya": 5040,
      "ASD": 5041,
      "Sunsh": 5042,
      "sepuluh": 5043,
      "Neur": 5044,
      "kecuali": 5045,
      "Sunshine": 5046,
      "AC": 5047,
      "Air": 5048,
      "Bir": 5049,
      "EM": 5050,
      "PS": 5051,
      "Wor": 5052,
      "rubah": 5053,
      "vel": 5054,
      "yville": 5055,
      "ze": 5056,
      "akom": 5057,
      "ember": 5058,
      "aslinya": 5059,
      "permata": 5060,
      "ketiga": 5061,
      "luang": 5062,
      "umu": 5063,
      "kelamin": 5064,
      "pedesaan": 5065,
      "tret": 5066,
      "mainanku": 5067,
      "lantai": 5068,
      "bertarung": 5069,
      "own": 5070,
      "tangkap": 5071,
      "viet": 5072,
      "ketat": 5073,
      "gandengan": 5074,
      "Soviet": 5075,
      "ariskan": 5076,
      "Jawaban": 5077,
      "que": 5078,
      "virus": 5079,
      "menggeleng": 5080,
      "Bagian": 5081,
      "menenun": 5082,
      "Brasil": 5083,
      "emosinya": 5084,
      "Ukraina": 5085,
      "17": 5086,
      "Lit": 5087,
      "Vic": 5088,
      "hadapi": 5089,
      "ie": 5090,
      "yata": 5091,
      "ard": 5092,
      "menaruh": 5093,
      "mendirikan": 5094,
      "berbelanja": 5095,
      "memain": 5096,
      "bayangan": 5097,
      "tertidur": 5098,
      "ario": 5099,
      "kuas": 5100,
      "paya": 5101,
      "poin": 5102,
      "selatan": 5103,
      "pembicara": 5104,
      "cermin": 5105,
      "rans": 5106,
      "kenyata": 5107,
      "kalinya": 5108,
      "istilah": 5109,
      "mengingatnya": 5110,
      "menutup": 5111,
      "situasinya": 5112,
      "ular": 5113,
      "zzle": 5114,
      "pemukim": 5115,
      "kostum": 5116,
      "waspada": 5117,
      "mewujudkan": 5118,
      "Yesus": 5119,
      "akomodasi": 5120,
      "memainkannya": 5121,
      "Arab": 5122,
      "Beg": 5123,
      "Chip": 5124,
      "Ta": 5125,
      "Tentara": 5126,
      "bungan": 5127,
      "mik": 5128,
      "ner": 5129,
      "ous": 5130,
      "pahami": 5131,
      "sebesar": 5132,
      "berdagang": 5133,
      "Angel": 5134,
      "ekstr": 5135,
      "Sudah": 5136,
      "darurat": 5137,
      "berkemah": 5138,
      "Meera": 5139,
      "perlakuan": 5140,
      "Carla": 5141,
      "pendekatan": 5142,
      "toples": 5143,
      "melempar": 5144,
      "terjebak": 5145,
      "AR": 5146,
      "Ot": 5147,
      "Was": 5148,
      "ky": 5149,
      "lom": 5150,
      "sapi": 5151,
      "skap": 5152,
      "atis": 5153,
      "mendalam": 5154,
      "mendidik": 5155,
      "ammy": 5156,
      "bersalah": 5157,
      "memicu": 5158,
      "keju": 5159,
      "keuntungan": 5160,
      "itmen": 5161,
      "itanya": 5162,
      "bau": 5163,
      "merdeka": 5164,
      "penolong": 5165,
      "ego": 5166,
      "olok": 5167,
      "menjaganya": 5168,
      "kenario": 5169,
      "tetua": 5170,
      "provinsi": 5171,
      "lamanya": 5172,
      "inky": 5173,
      "Pribumi": 5174,
      "perkembangan": 5175,
      "tusias": 5176,
      "Portugal": 5177,
      "tekanan": 5178,
      "Frien": 5179,
      "Mal": 5180,
      "Tampaknya": 5181,
      "frasa": 5182,
      "fasil": 5183,
      "kalah": 5184,
      "lun": 5185,
      "mang": 5186,
      "sanya": 5187,
      "wood": 5188,
      "sejuk": 5189,
      "berke": 5190,
      "persamaan": 5191,
      "kebersamaan": 5192,
      "mengo": 5193,
      "meraih": 5194,
      "tuku": 5195,
      "kitab": 5196,
      "bek": 5197,
      "ekerja": 5198,
      "pejuang": 5199,
      "Perubahan": 5200,
      "kemenangan": 5201,
      "benaran": 5202,
      "disebutkan": 5203,
      "serangan": 5204,
      "menyetuju": 5205,
      "model": 5206,
      "perasaanmu": 5207,
      "pelatihan": 5208,
      "Bear": 5209,
      "Melody": 5210,
      "bolehkan": 5211,
      "Maksud": 5212,
      "efisi": 5213,
      "adikku": 5214,
      "aliran": 5215,
      "wisatawan": 5216,
      "Hutan": 5217,
      "lumpur": 5218,
      "kesenangan": 5219,
      "presentasi": 5220,
      "kelahian": 5221,
      "kesukaan": 5222,
      "menyangka": 5223,
      "Swe": 5224,
      "ng": 5225,
      "omend": 5226,
      "pasi": 5227,
      "skenario": 5228,
      "eral": 5229,
      "inten": 5230,
      "diketahui": 5231,
      "berlanjut": 5232,
      "memutar": 5233,
      "ekosis": 5234,
      "Sebuah": 5235,
      "row": 5236,
      "Teori": 5237,
      "bunyikan": 5238,
      "diriku": 5239,
      "telinga": 5240,
      "Hebat": 5241,
      "memanggil": 5242,
      "Lebih": 5243,
      "terkejut": 5244,
      "cangkir": 5245,
      "estina": 5246,
      "Mommy": 5247,
      "pisang": 5248,
      "Palestina": 5249,
      "digital": 5250,
      "Aisha": 5251,
      "Tahun": 5252,
      "ekosistem": 5253,
      "Fun": 5254,
      "Kuno": 5255,
      "Nat": 5256,
      "War": 5257,
      "kari": 5258,
      "kris": 5259,
      "lengan": 5260,
      "sw": 5261,
      "antusias": 5262,
      "aka": 5263,
      "ake": 5264,
      "sela": 5265,
      "sebanyak": 5266,
      "berpendapat": 5267,
      "berseru": 5268,
      "bergandengan": 5269,
      "asum": 5270,
      "perbatasan": 5271,
      "bai": 5272,
      "baran": 5273,
      "antinya": 5274,
      "benarkah": 5275,
      "membawakan": 5276,
      "dekorasi": 5277,
      "membantuku": 5278,
      "Peter": 5279,
      "spesies": 5280,
      "Kofi": 5281,
      "diciptakan": 5282,
      "Agak": 5283,
      "inklusif": 5284,
      "Jamal": 5285,
      "Rumah": 5286,
      "membuktikan": 5287,
      "Victor": 5288,
      "kenyataan": 5289,
      "Begini": 5290,
      "AD": 5291,
      "Ak": 5292,
      "Cody": 5293,
      "Ed": 5294,
      "Min": 5295,
      "Namanya": 5296,
      "Presi": 5297,
      "Red": 5298,
      "Tor": 5299,
      "rkan": 5300,
      "reg": 5301,
      "ven": 5302,
      "atinya": 5303,
      "menit": 5304,
      "sebaik": 5305,
      "dicintai": 5306,
      "bertan": 5307,
      "berjauhan": 5308,
      "ast": 5309,
      "elemen": 5310,
      "layang": 5311,
      "arawan": 5312,
      "uman": 5313,
      "tabir": 5314,
      "aian": 5315,
      "akhiri": 5316,
      "menyenangkannya": 5317,
      "ayunan": 5318,
      "matinya": 5319,
      "bentuknya": 5320,
      "dikunjungi": 5321,
      "Peman": 5322,
      "tisme": 5323,
      "menganut": 5324,
      "berkelahi": 5325,
      "helm": 5326,
      "memejamkan": 5327,
      "Mongol": 5328,
      "Makanan": 5329,
      "menikmatinya": 5330,
      "David": 5331,
      "nafas": 5332,
      "keahlian": 5333,
      "kristal": 5334,
      "asumsi": 5335,
      "Ir": 5336,
      "Sungai": 5337,
      "Salib": 5338,
      "bra": 5339,
      "feminis": 5340,
      "mungi": 5341,
      "nia": 5342,
      "ukur": 5343,
      "ancang": 5344,
      "menilai": 5345,
      "menolak": 5346,
      "kanak": 5347,
      "memb": 5348,
      "perteman": 5349,
      "ketek": 5350,
      "engahan": 5351,
      "bie": 5352,
      "meri": 5353,
      "merancang": 5354,
      "tertulis": 5355,
      "sabun": 5356,
      "isyarat": 5357,
      "puisi": 5358,
      "manik": 5359,
      "pengantar": 5360,
      "pembantu": 5361,
      "pemikir": 5362,
      "ceria": 5363,
      "menghakim": 5364,
      "memupuk": 5365,
      "Bersikap": 5366,
      "sejarahnya": 5367,
      "pertengahan": 5368,
      "Mempelajari": 5369,
      "promi": 5370,
      "Ayahnya": 5371,
      "ganggu": 5372,
      "menginap": 5373,
      "tangguh": 5374,
      "Presiden": 5375,
      "mungil": 5376,
      "10": 5377,
      "Abu": 5378,
      "Col": 5379,
      "Juan": 5380,
      "Kali": 5381,
      "Ni": 5382,
      "bor": 5383,
      "dol": 5384,
      "enis": 5385,
      "menolong": 5386,
      "beris": 5387,
      "berhari": 5388,
      "kanya": 5389,
      "kabel": 5390,
      "mematikan": 5391,
      "perkelahian": 5392,
      "teran": 5393,
      "tersendiri": 5394,
      "tersisa": 5395,
      "liangnya": 5396,
      "onik": 5397,
      "lubuk": 5398,
      "bagiannya": 5399,
      "menyum": 5400,
      "hidung": 5401,
      "memperkaya": 5402,
      "tahap": 5403,
      "ilihan": 5404,
      "bunuh": 5405,
      "Budaya": 5406,
      "monarki": 5407,
      "dirasakan": 5408,
      "diperbolehkan": 5409,
      "cegahan": 5410,
      "katakanlah": 5411,
      "menjulang": 5412,
      "igh": 5413,
      "ggak": 5414,
      "stabil": 5415,
      "Wise": 5416,
      "Squir": 5417,
      "arsitektur": 5418,
      "ketekunan": 5419,
      "Dana": 5420,
      "Fu": 5421,
      "Go": 5422,
      "Ling": 5423,
      "Nak": 5424,
      "Res": 5425,
      "Twe": 5426,
      "gara": 5427,
      "lari": 5428,
      "rer": 5429,
      "rit": 5430,
      "ino": 5431,
      "amatan": 5432,
      "asalnya": 5433,
      "membosan": 5434,
      "ajemen": 5435,
      "puzzle": 5436,
      "pekan": 5437,
      "menghadi": 5438,
      "datangan": 5439,
      "dewi": 5440,
      "Penny": 5441,
      "internasional": 5442,
      "ayahmu": 5443,
      "oven": 5444,
      "berbincang": 5445,
      "memproses": 5446,
      "mengawasi": 5447,
      "hidrasi": 5448,
      "Little": 5449,
      "fasilitas": 5450,
      "lunak": 5451,
      "pertemanan": 5452,
      "12": 5453,
      "Emo": 5454,
      "Rubah": 5455,
      "Sn": 5456,
      "eotip": 5457,
      "fikasi": 5458,
      "mind": 5459,
      "nor": 5460,
      "nada": 5461,
      "pers": 5462,
      "pertahanan": 5463,
      "perjanjian": 5464,
      "meren": 5465,
      "ikota": 5466,
      "terbel": 5467,
      "lutut": 5468,
      "puluh": 5469,
      "membantumu": 5470,
      "mencat": 5471,
      "kele": 5472,
      "anakku": 5473,
      "sembarang": 5474,
      "kompromi": 5475,
      "lanskap": 5476,
      "katak": 5477,
      "sejenis": 5478,
      "oksi": 5479,
      "protes": 5480,
      "menaiki": 5481,
      "menyakitkan": 5482,
      "landmark": 5483,
      "Jack": 5484,
      "curkan": 5485,
      "Desa": 5486,
      "industri": 5487,
      "penjelajahan": 5488,
      "kohol": 5489,
      "menetap": 5490,
      "ameran": 5491,
      "jangkau": 5492,
      "Henry": 5493,
      "efisien": 5494,
      "Swedia": 5495,
      "terbelalak": 5496,
      "Akan": 5497,
      "Ama": 5498,
      "Ra": 5499,
      "cuma": 5500,
      "rangan": 5501,
      "sosi": 5502,
      "usul": 5503,
      "erlang": 5504,
      "aktor": 5505,
      "sesekali": 5506,
      "berkurang": 5507,
      "aster": 5508,
      "tia": 5509,
      "item": 5510,
      "gagal": 5511,
      "ladi": 5512,
      "susu": 5513,
      "bahas": 5514,
      "kogni": 5515,
      "tahuan": 5516,
      "utara": 5517,
      "kemarahan": 5518,
      "balon": 5519,
      "isahkan": 5520,
      "gemar": 5521,
      "kuncinya": 5522,
      "Kuba": 5523,
      "menyimpannya": 5524,
      "selisih": 5525,
      "ustrasikan": 5526,
      "Ruby": 5527,
      "usianya": 5528,
      "disabilitas": 5529,
      "vestasi": 5530,
      "multi": 5531,
      "menggelengkan": 5532,
      "Irlandia": 5533,
      "membosankan": 5534,
      "Aw": 5535,
      "Fili": 5536,
      "Gar": 5537,
      "Luar": 5538,
      "My": 5539,
      "dget": 5540,
      "grup": 5541,
      "habis": 5542,
      "panggung": 5543,
      "mencetak": 5544,
      "dita": 5545,
      "bergambar": 5546,
      "berempati": 5547,
      "berpetualang": 5548,
      "berselisih": 5549,
      "asap": 5550,
      "membe": 5551,
      "kejar": 5552,
      "ape": 5553,
      "baginya": 5554,
      "biologi": 5555,
      "menghal": 5556,
      "mengec": 5557,
      "terlepas": 5558,
      "gadget": 5559,
      "layak": 5560,
      "lack": 5561,
      "bebatuan": 5562,
      "objek": 5563,
      "pandangan": 5564,
      "kie": 5565,
      "Penyu": 5566,
      "bulat": 5567,
      "merawatnya": 5568,
      "trauma": 5569,
      "Pemikiran": 5570,
      "menekankan": 5571,
      "sayapnya": 5572,
      "berbinar": 5573,
      "mengilustrasikan": 5574,
      "memotret": 5575,
      "konselor": 5576,
      "menunggang": 5577,
      "menghakimi": 5578,
      "menyumbangkan": 5579,
      "mencatat": 5580,
      "Binky": 5581,
      "CO": 5582,
      "Gam": 5583,
      "bara": 5584,
      "rata": 5585,
      "sara": 5586,
      "aky": 5587,
      "yal": 5588,
      "alkohol": 5589,
      "berabad": 5590,
      "elang": 5591,
      "buang": 5592,
      "keturun": 5593,
      "apor": 5594,
      "menghubungi": 5595,
      "terpesona": 5596,
      "luka": 5597,
      "besarnya": 5598,
      "gula": 5599,
      "disingkat": 5600,
      "tori": 5601,
      "Menarik": 5602,
      "memancing": 5603,
      "demok": 5604,
      "menyerahkan": 5605,
      "berkicau": 5606,
      "Pengalaman": 5607,
      "sepupu": 5608,
      "bebani": 5609,
      "Siprus": 5610,
      "mengidap": 5611,
      "Danau": 5612,
      "Cor": 5613,
      "ER": 5614,
      "Kit": 5615,
      "Mor": 5616,
      "Main": 5617,
      "Tho": 5618,
      "cy": 5619,
      "hen": 5620,
      "len": 5621,
      "sor": 5622,
      "temuan": 5623,
      "inf": 5624,
      "meni": 5625,
      "disukai": 5626,
      "dipilih": 5627,
      "kancing": 5628,
      "kaian": 5629,
      "kacangan": 5630,
      "kebenaran": 5631,
      "orany": 5632,
      "ungkan": 5633,
      "pencegahan": 5634,
      "kelem": 5635,
      "antap": 5636,
      "medan": 5637,
      "konsis": 5638,
      "tinggalkan": 5639,
      "tep": 5640,
      "menunjukkannya": 5641,
      "pelangg": 5642,
      "menukar": 5643,
      "Sampai": 5644,
      "kumpulkan": 5645,
      "sinyur": 5646,
      "elevan": 5647,
      "miah": 5648,
      "Bisa": 5649,
      "Kelihatannya": 5650,
      "Tetap": 5651,
      "stereotip": 5652,
      "ratusan": 5653,
      "prosesnya": 5654,
      "Tanah": 5655,
      "Momo": 5656,
      "Mike": 5657,
      "virtual": 5658,
      "mengunyah": 5659,
      "jutaan": 5660,
      "pengembangan": 5661,
      "Teluk": 5662,
      "oranye": 5663,
      "Adam": 5664,
      "Che": 5665,
      "Tw": 5666,
      "Tum": 5667,
      "fami": 5668,
      "jun": 5669,
      "malu": 5670,
      "enam": 5671,
      "seks": 5672,
      "unta": 5673,
      "ampa": 5674,
      "bertumbuh": 5675,
      "memori": 5676,
      "dani": 5677,
      "kejaran": 5678,
      "apung": 5679,
      "ings": 5680,
      "terampil": 5681,
      "sub": 5682,
      "paket": 5683,
      "sarannya": 5684,
      "pemicu": 5685,
      "ceritanya": 5686,
      "memperlihat": 5687,
      "rediksi": 5688,
      "Buzzy": 5689,
      "Emosi": 5690,
      "jelasan": 5691,
      "memakannya": 5692,
      "akarya": 5693,
      "delapan": 5694,
      "mencium": 5695,
      "penyebab": 5696,
      "membacakan": 5697,
      "pemberon": 5698,
      "cemerlang": 5699,
      "Sudahkah": 5700,
      "bertani": 5701,
      "15": 5702,
      "Bon": 5703,
      "abo": 5704,
      "fat": 5705,
      "ritual": 5706,
      "uit": 5707,
      "arak": 5708,
      "perkata": 5709,
      "perbekal": 5710,
      "kep": 5711,
      "kepenting": 5712,
      "wajar": 5713,
      "koleksi": 5714,
      "aluran": 5715,
      "atian": 5716,
      "Inilah": 5717,
      "pembangunan": 5718,
      "menghan": 5719,
      "menghela": 5720,
      "heart": 5721,
      "toi": 5722,
      "tepercaya": 5723,
      "sejarawan": 5724,
      "okasi": 5725,
      "pelay": 5726,
      "upacara": 5727,
      "Soci": 5728,
      "hasilnya": 5729,
      "kaitan": 5730,
      "bentar": 5731,
      "astrologi": 5732,
      "intens": 5733,
      "menghadirkan": 5734,
      "Awalnya": 5735,
      "saraf": 5736,
      "Kai": 5737,
      "Kisah": 5738,
      "Tindakan": 5739,
      "Viking": 5740,
      "We": 5741,
      "esensi": 5742,
      "mala": 5743,
      "opak": 5744,
      "pali": 5745,
      "arte": 5746,
      "alisasi": 5747,
      "alth": 5748,
      "bersepeda": 5749,
      "apah": 5750,
      "mengulang": 5751,
      "tertinggal": 5752,
      "ternyata": 5753,
      "terorganisir": 5754,
      "laim": 5755,
      "pati": 5756,
      "meleng": 5757,
      "ajah": 5758,
      "mulus": 5759,
      "kartun": 5760,
      "selem": 5761,
      "pengel": 5762,
      "pie": 5763,
      "Perjalanan": 5764,
      "komitmen": 5765,
      "Sekolah": 5766,
      "lembah": 5767,
      "ampilannya": 5768,
      "lurus": 5769,
      "tujuh": 5770,
      "mineral": 5771,
      "Memang": 5772,
      "basket": 5773,
      "Semak": 5774,
      "universitas": 5775,
      "pengaruhnya": 5776,
      "Kembali": 5777,
      "tionville": 5778,
      "perbekalan": 5779,
      "malaikat": 5780,
      "Cobalah": 5781,
      "For": 5782,
      "Hak": 5783,
      "Papa": 5784,
      "Raya": 5785,
      "etika": 5786,
      "gol": 5787,
      "nggak": 5788,
      "radi": 5789,
      "relevan": 5790,
      "sant": 5791,
      "sobat": 5792,
      "saluran": 5793,
      "tampilan": 5794,
      "ensik": 5795,
      "angati": 5796,
      "akunya": 5797,
      "mendarat": 5798,
      "alog": 5799,
      "berujung": 5800,
      "berkaitan": 5801,
      "kapi": 5802,
      "perlakukan": 5803,
      "key": 5804,
      "saurus": 5805,
      "lebat": 5806,
      "jub": 5807,
      "dalian": 5808,
      "ust": 5809,
      "kelip": 5810,
      "selar": 5811,
      "omp": 5812,
      "Perlahan": 5813,
      "mempertanyakan": 5814,
      "Super": 5815,
      "batasi": 5816,
      "takjub": 5817,
      "menyajikan": 5818,
      "ayo": 5819,
      "memercayai": 5820,
      "ajaibnya": 5821,
      "sayangnya": 5822,
      "khawatirkan": 5823,
      "Tembok": 5824,
      "Pengetahuan": 5825,
      "ovel": 5826,
      "tersebar": 5827,
      "menyemangati": 5828,
      "toman": 5829,
      "goyang": 5830,
      "presiden": 5831,
      "operasi": 5832,
      "meyakinkannya": 5833,
      "safari": 5834,
      "felting": 5835,
      "permadani": 5836,
      "Ottoman": 5837,
      "Amazon": 5838,
      "artefak": 5839,
      "Den": 5840,
      "Pip": 5841,
      "kungan": 5842,
      "pajak": 5843,
      "tata": 5844,
      "uangan": 5845,
      "vensi": 5846,
      "anu": 5847,
      "setengah": 5848,
      "ite": 5849,
      "jad": 5850,
      "untuknya": 5851,
      "sutra": 5852,
      "iland": 5853,
      "cedera": 5854,
      "atus": 5855,
      "melodi": 5856,
      "umkan": 5857,
      "depresi": 5858,
      "Inter": 5859,
      "menghadap": 5860,
      "osikan": 5861,
      "pulsif": 5862,
      "setelahnya": 5863,
      "sumbu": 5864,
      "minkan": 5865,
      "yihir": 5866,
      "Unt": 5867,
      "jamur": 5868,
      "cha": 5869,
      "mencerminkan": 5870,
      "dopsi": 5871,
      "adam": 5872,
      "Proses": 5873,
      "Island": 5874,
      "menyembunyikan": 5875,
      "dihabiskan": 5876,
      "mengontrol": 5877,
      "Eliza": 5878,
      "mikro": 5879,
      "pasien": 5880,
      "Natal": 5881,
      "Abuela": 5882,
      "Tweety": 5883,
      "menghalangi": 5884,
      "keturunan": 5885,
      "memperlihatkan": 5886,
      "selembar": 5887,
      "Semakin": 5888,
      "16": 5889,
      "GI": 5890,
      "Gol": 5891,
      "Hin": 5892,
      "Malam": 5893,
      "Pr": 5894,
      "Rab": 5895,
      "Tha": 5896,
      "bakan": 5897,
      "darah": 5898,
      "ges": 5899,
      "jol": 5900,
      "pnosis": 5901,
      "ulis": 5902,
      "inan": 5903,
      "sejauh": 5904,
      "sebentar": 5905,
      "dira": 5906,
      "tir": 5907,
      "kaum": 5908,
      "kaisar": 5909,
      "perak": 5910,
      "mengakhiri": 5911,
      "lase": 5912,
      "dakian": 5913,
      "tema": 5914,
      "diaan": 5915,
      "sentuh": 5916,
      "pendakian": 5917,
      "pol": 5918,
      "beli": 5919,
      "ingatkan": 5920,
      "Haiti": 5921,
      "unjungan": 5922,
      "pina": 5923,
      "berlindung": 5924,
      "Rocky": 5925,
      "mendorongnya": 5926,
      "aturannya": 5927,
      "agamaan": 5928,
      "memasukkannya": 5929,
      "Thomp": 5930,
      "Curi": 5931,
      "petisi": 5932,
      "warnanya": 5933,
      "Jenny": 5934,
      "App": 5935,
      "Squirrel": 5936,
      "Filipina": 5937,
      "ampainya": 5938,
      "menghancurkan": 5939,
      "Thailand": 5940,
      "Thompson": 5941,
      "Cara": 5942,
      "Jalur": 5943,
      "com": 5944,
      "det": 5945,
      "gent": 5946,
      "jelaskan": 5947,
      "kunjungan": 5948,
      "ather": 5949,
      "menun": 5950,
      "diturun": 5951,
      "bercocok": 5952,
      "pernik": 5953,
      "tentangnya": 5954,
      "murid": 5955,
      "penyu": 5956,
      "pau": 5957,
      "paduan": 5958,
      "menyatakan": 5959,
      "menjangka": 5960,
      "Peri": 5961,
      "Peru": 5962,
      "semarak": 5963,
      "kematian": 5964,
      "kica": 5965,
      "jaksana": 5966,
      "datar": 5967,
      "Teddy": 5968,
      "mendapatkannya": 5969,
      "deras": 5970,
      "tujuannya": 5971,
      "iringkan": 5972,
      "Bijaksana": 5973,
      "polimer": 5974,
      "keindahannya": 5975,
      "tuliskan": 5976,
      "cintanya": 5977,
      "melacak": 5978,
      "menyiram": 5979,
      "inovasi": 5980,
      "pecahan": 5981,
      "variasi": 5982,
      "Samudera": 5983,
      "luangkan": 5984,
      "pembicaraan": 5985,
      "diturunkan": 5986,
      "Fit": 5987,
      "Gur": 5988,
      "Hit": 5989,
      "Hil": 5990,
      "Ibuku": 5991,
      "Kol": 5992,
      "jana": 5993,
      "kang": 5994,
      "yn": 5995,
      "uninya": 5996,
      "berse": 5997,
      "tipe": 5998,
      "memiringkan": 5999,
      "keagamaan": 6000,
      "oris": 6001,
      "tersan": 6002,
      "tergel": 6003,
      "jabat": 6004,
      "lic": 6005,
      "lihkan": 6006,
      "adaya": 6007,
      "unggun": 6008,
      "supaya": 6009,
      "obo": 6010,
      "melangkah": 6011,
      "isinya": 6012,
      "akur": 6013,
      "pensi": 6014,
      "kers": 6015,
      "menyanyi": 6016,
      "kelopak": 6017,
      "paksa": 6018,
      "sarangnya": 6019,
      "Inuit": 6020,
      "Keduanya": 6021,
      "amuan": 6022,
      "mekan": 6023,
      "Sekali": 6024,
      "masukkan": 6025,
      "boh": 6026,
      "bot": 6027,
      "bingkai": 6028,
      "sisinya": 6029,
      "bawahnya": 6030,
      "kaktus": 6031,
      "osko": 6032,
      "cakar": 6033,
      "000": 6034,
      "memintanya": 6035,
      "nikmat": 6036,
      "seksama": 6037,
      "Turtle": 6038,
      "1800": 6039,
      "menumpuk": 6040,
      "mengembalikannya": 6041,
      "transgender": 6042,
      "perkemahan": 6043,
      "menghadang": 6044,
      "Hawai": 6045,
      "membacanya": 6046,
      "imbalannya": 6047,
      "menurun": 6048,
      "Maladewa": 6049,
      "menggemaskan": 6050,
      "Kapten": 6051,
      "ACT": 6052,
      "perkataan": 6053,
      "kepentingan": 6054,
      "Hindia": 6055,
      "kicauan": 6056,
      "Mil": 6057,
      "Tay": 6058,
      "bata": 6059,
      "chu": 6060,
      "syal": 6061,
      "zona": 6062,
      "arkannya": 6063,
      "menel": 6064,
      "ditanam": 6065,
      "busur": 6066,
      "ith": 6067,
      "menghidup": 6068,
      "terhidrasi": 6069,
      "lib": 6070,
      "justru": 6071,
      "umpu": 6072,
      "temen": 6073,
      "sendok": 6074,
      "uhur": 6075,
      "semut": 6076,
      "namen": 6077,
      "menyayang": 6078,
      "masalahnya": 6079,
      "lot": 6080,
      "kisahnya": 6081,
      "privasi": 6082,
      "perilakunya": 6083,
      "menimpali": 6084,
      "sipil": 6085,
      "libatkan": 6086,
      "Sering": 6087,
      "rute": 6088,
      "Begitulah": 6089,
      "menembak": 6090,
      "Gereja": 6091,
      "grafis": 6092,
      "Psycho": 6093,
      "Chris": 6094,
      "----------------": 6095,
      "Jenis": 6096,
      "Muslim": 6097,
      "stiker": 6098,
      "penghuninya": 6099,
      "Remy": 6100,
      "Untungnya": 6101,
      "tersandung": 6102,
      "Hawaii": 6103,
      "AT": 6104,
      "Bri": 6105,
      "Brun": 6106,
      "Klub": 6107,
      "OC": 6108,
      "Ped": 6109,
      "ex": 6110,
      "gamu": 6111,
      "hiking": 6112,
      "oso": 6113,
      "partikel": 6114,
      "vak": 6115,
      "amarah": 6116,
      "bergoyang": 6117,
      "kawan": 6118,
      "pertuk": 6119,
      "mengemudi": 6120,
      "menggigit": 6121,
      "mengkhawatirkan": 6122,
      "mere": 6123,
      "aria": 6124,
      "silang": 6125,
      "tukang": 6126,
      "Andy": 6127,
      "ilmiah": 6128,
      "bantal": 6129,
      "dum": 6130,
      "ustrasi": 6131,
      "jadikan": 6132,
      "karbon": 6133,
      "karyanya": 6134,
      "harganya": 6135,
      "negosiasi": 6136,
      "ransel": 6137,
      "memprom": 6138,
      "Beni": 6139,
      "kontak": 6140,
      "hington": 6141,
      "litkan": 6142,
      "olos": 6143,
      "masyarakatnya": 6144,
      "membiarkannya": 6145,
      "Alkitab": 6146,
      "odel": 6147,
      "you": 6148,
      "melewatkan": 6149,
      "lawanan": 6150,
      "kemampuannya": 6151,
      "Konsep": 6152,
      "populasi": 6153,
      "Fred": 6154,
      "fulness": 6155,
      "kemanapun": 6156,
      "mulailah": 6157,
      "imbalan": 6158,
      "fleksibel": 6159,
      "mimpinya": 6160,
      "pengendalian": 6161,
      "Washington": 6162,
      "menjangkau": 6163,
      "mempromosikan": 6164,
      "Body": 6165,
      "Bree": 6166,
      "Blib": 6167,
      "Drak": 6168,
      "Lo": 6169,
      "Mener": 6170,
      "Nya": 6171,
      "Pus": 6172,
      "Sim": 6173,
      "Senang": 6174,
      "gali": 6175,
      "hai": 6176,
      "henti": 6177,
      "sun": 6178,
      "tap": 6179,
      "arke": 6180,
      "amakan": 6181,
      "berbahasa": 6182,
      "berkreasi": 6183,
      "kantor": 6184,
      "tiket": 6185,
      "memisahkan": 6186,
      "saik": 6187,
      "adapan": 6188,
      "one": 6189,
      "juran": 6190,
      "ental": 6191,
      "lupakan": 6192,
      "tempur": 6193,
      "sebutkan": 6194,
      "inginkannya": 6195,
      "polusi": 6196,
      "pengawasan": 6197,
      "rot": 6198,
      "sekalipun": 6199,
      "memulihkan": 6200,
      "anggaran": 6201,
      "curi": 6202,
      "guling": 6203,
      "menyalah": 6204,
      "simpulan": 6205,
      "Tua": 6206,
      "Mau": 6207,
      "pekerjaannya": 6208,
      "Alat": 6209,
      "pemimpinan": 6210,
      "Roh": 6211,
      "Health": 6212,
      "aksesori": 6213,
      "dipimpin": 6214,
      "MeiMei": 6215,
      "fornia": 6216,
      "Tanpa": 6217,
      "ekonom": 6218,
      "hipnosis": 6219,
      "lengkap": 6220,
      "persegi": 6221,
      "mendemonstrasikan": 6222,
      "mangkuk": 6223,
      "ditawarkan": 6224,
      "Thomas": 6225,
      "jadwal": 6226,
      "Drake": 6227,
      "BC": 6228,
      "Din": 6229,
      "Im": 6230,
      "Spar": 6231,
      "Than": 6232,
      "ainya": 6233,
      "balah": 6234,
      "basis": 6235,
      "fin": 6236,
      "jir": 6237,
      "jaman": 6238,
      "osaurus": 6239,
      "parah": 6240,
      "temu": 6241,
      "arus": 6242,
      "ema": 6243,
      "dilibatkan": 6244,
      "alun": 6245,
      "amis": 6246,
      "bersahabat": 6247,
      "bertujuan": 6248,
      "timur": 6249,
      "membin": 6250,
      "memesan": 6251,
      "itasi": 6252,
      "mengharapkan": 6253,
      "sadari": 6254,
      "Analisis": 6255,
      "Alih": 6256,
      "lue": 6257,
      "asikannya": 6258,
      "akuti": 6259,
      "kotoran": 6260,
      "seninya": 6261,
      "membuangnya": 6262,
      "penyihir": 6263,
      "keragaman": 6264,
      "masakan": 6265,
      "pengingat": 6266,
      "pengaturan": 6267,
      "tingkah": 6268,
      "antro": 6269,
      "waran": 6270,
      "kompetisi": 6271,
      "hancur": 6272,
      "burg": 6273,
      "duksi": 6274,
      "kotaan": 6275,
      "bunyi": 6276,
      "lemen": 6277,
      "khaya": 6278,
      "ramalan": 6279,
      "bersifat": 6280,
      "menurutmu": 6281,
      "menyusuri": 6282,
      "sesuaikan": 6283,
      "Art": 6284,
      "menguji": 6285,
      "mengerikan": 6286,
      "opsi": 6287,
      "forensik": 6288,
      "penerbangan": 6289,
      "persetujuan": 6290,
      "Oakley": 6291,
      "gulungan": 6292,
      "Betapa": 6293,
      "pelanggan": 6294,
      "membina": 6295,
      "Dua": 6296,
      "Hap": 6297,
      "Nomor": 6298,
      "Ses": 6299,
      "Ton": 6300,
      "rap": 6301,
      "ving": 6302,
      "ensinya": 6303,
      "insinyur": 6304,
      "sebagaimana": 6305,
      "dihi": 6306,
      "diubah": 6307,
      "diceritakan": 6308,
      "ambat": 6309,
      "turan": 6310,
      "bermaksud": 6311,
      "berpengalaman": 6312,
      "berry": 6313,
      "bertiup": 6314,
      "keten": 6315,
      "itahu": 6316,
      "ungu": 6317,
      "bec": 6318,
      "bedanya": 6319,
      "kopi": 6320,
      "membuahkan": 6321,
      "pad": 6322,
      "panen": 6323,
      "Merah": 6324,
      "menjamin": 6325,
      "Pertempuran": 6326,
      "Benda": 6327,
      "cuci": 6328,
      "cairan": 6329,
      "niat": 6330,
      "memerik": 6331,
      "sayangi": 6332,
      "Pendidikan": 6333,
      "menyulitkan": 6334,
      "tenda": 6335,
      "ulat": 6336,
      "manfaatnya": 6337,
      "Semuanya": 6338,
      "resor": 6339,
      "menyelesaikannya": 6340,
      "tario": 6341,
      "merayakannya": 6342,
      "pesiar": 6343,
      "dinosaurus": 6344,
      "berdebar": 6345,
      "keingintahuan": 6346,
      "hypnosis": 6347,
      "dikenakan": 6348,
      "rekomend": 6349,
      "material": 6350,
      "memadukan": 6351,
      "penjajah": 6352,
      "Grace": 6353,
      "Ontario": 6354,
      "kognitif": 6355,
      "By": 6356,
      "Bat": 6357,
      "Cali": 6358,
      "DAN": 6359,
      "Gajah": 6360,
      "Met": 6361,
      "Tai": 6362,
      "Trans": 6363,
      "Ur": 6364,
      "cita": 6365,
      "capai": 6366,
      "dasi": 6367,
      "gang": 6368,
      "gasi": 6369,
      "nuk": 6370,
      "pungg": 6371,
      "pameran": 6372,
      "renang": 6373,
      "usuri": 6374,
      "yut": 6375,
      "seolah": 6376,
      "diharapkan": 6377,
      "berpasir": 6378,
      "bercampur": 6379,
      "bertuliskan": 6380,
      "perkotaan": 6381,
      "kesimpulan": 6382,
      "aparan": 6383,
      "mengukir": 6384,
      "nyawa": 6385,
      "terlindungi": 6386,
      "sion": 6387,
      "banjir": 6388,
      "tembak": 6389,
      "alihkan": 6390,
      "padat": 6391,
      "kera": 6392,
      "harimau": 6393,
      "panik": 6394,
      "debu": 6395,
      "hukuman": 6396,
      "anaknya": 6397,
      "sarung": 6398,
      "pemadam": 6399,
      "Kehidupan": 6400,
      "Ternyata": 6401,
      "kenakan": 6402,
      "Ingin": 6403,
      "tubuhmu": 6404,
      "bintik": 6405,
      "otom": 6406,
      "abisan": 6407,
      "ulasan": 6408,
      "bukaan": 6409,
      "kehabisan": 6410,
      "gandum": 6411,
      "daunnya": 6412,
      "memakainya": 6413,
      "bolak": 6414,
      "Hei": 6415,
      "they": 6416,
      "Carl": 6417,
      "194": 6418,
      "limbah": 6419,
      "Menurutku": 6420,
      "Mindville": 6421,
      "leluhur": 6422,
      "ratis": 6423,
      "konsekuensinya": 6424,
      "Georgia": 6425,
      "Walikota": 6426,
      "pemiliknya": 6427,
      "Portugis": 6428,
      "saudar": 6429,
      "demokrasi": 6430,
      "Pippin": 6431,
      "Menerapkan": 6432,
      "Ayur": 6433,
      "Asta": 6434,
      "Craf": 6435,
      "Feminis": 6436,
      "Id": 6437,
      "King": 6438,
      "Lin": 6439,
      "Land": 6440,
      "Lou": 6441,
      "No": 6442,
      "Wak": 6443,
      "ajukan": 6444,
      "fur": 6445,
      "has": 6446,
      "ila": 6447,
      "jas": 6448,
      "jara": 6449,
      "jahan": 6450,
      "novel": 6451,
      "sap": 6452,
      "ski": 6453,
      "use": 6454,
      "”?": 6455,
      "arinya": 6456,
      "inn": 6457,
      "aksasi": 6458,
      "unsur": 6459,
      "ditinggalkan": 6460,
      "berupa": 6461,
      "beritahu": 6462,
      "membatasi": 6463,
      "perpaduan": 6464,
      "perekonom": 6465,
      "apus": 6466,
      "terpen": 6467,
      "arian": 6468,
      "liam": 6469,
      "suaranya": 6470,
      "umbu": 6471,
      "menyantap": 6472,
      "Seekor": 6473,
      "Merawat": 6474,
      "penge": 6475,
      "menghamp": 6476,
      "makanannya": 6477,
      "Keter": 6478,
      "mempersulit": 6479,
      "konstruksi": 6480,
      "kuatannya": 6481,
      "Budd": 6482,
      "Harmon": 6483,
      "perempuanku": 6484,
      "Joy": 6485,
      "tugasnya": 6486,
      "resmi": 6487,
      "ogni": 6488,
      "unjunginya": 6489,
      "menebang": 6490,
      "kultur": 6491,
      "selesaikan": 6492,
      "singkatan": 6493,
      "perutnya": 6494,
      "sekutu": 6495,
      "Ricky": 6496,
      "penguin": 6497,
      "lowe": 6498,
      "Bunnie": 6499,
      "William": 6500,
      "menendang": 6501,
      "menikah": 6502,
      "sensitif": 6503,
      "menuruni": 6504,
      "Whiskers": 6505,
      "menyetujui": 6506,
      "pemikirannya": 6507,
      "Emotionville": 6508,
      "konsisten": 6509,
      "tepung": 6510,
      "Elizabet": 6511,
      "pensiun": 6512,
      "khayalan": 6513,
      "California": 6514,
      "perekonomian": 6515,
      "Black": 6516,
      "City": 6517,
      "Flor": 6518,
      "Pol": 6519,
      "Pic": 6520,
      "SD": 6521,
      "Tammy": 6522,
      "Vladi": 6523,
      "dre": 6524,
      "our": 6525,
      "tunjukkan": 6526,
      "utuh": 6527,
      "zer": 6528,
      "ergi": 6529,
      "angkut": 6530,
      "didengar": 6531,
      "berser": 6532,
      "berlibur": 6533,
      "bermek": 6534,
      "tibalah": 6535,
      "keuangan": 6536,
      "kepemimpinan": 6537,
      "kekuatannya": 6538,
      "mengenang": 6539,
      "bank": 6540,
      "bahak": 6541,
      "kudengar": 6542,
      "halang": 6543,
      "kotanya": 6544,
      "banyaknya": 6545,
      "poster": 6546,
      "tetesan": 6547,
      "Peril": 6548,
      "memprediksi": 6549,
      "motor": 6550,
      "gambarnya": 6551,
      "simal": 6552,
      "ekornya": 6553,
      "favoritmu": 6554,
      "ulangan": 6555,
      "dikirim": 6556,
      "mengusir": 6557,
      "yoga": 6558,
      "gejal": 6559,
      "anyian": 6560,
      "menonjol": 6561,
      "diplom": 6562,
      "jumlahnya": 6563,
      "jerapah": 6564,
      "Mulai": 6565,
      "relaksasi": 6566,
      "Seni": 6567,
      "Feel": 6568,
      "phia": 6569,
      "Clou": 6570,
      "elektr": 6571,
      "tergeletak": 6572,
      "memeriksanya": 6573,
      "nuklir": 6574,
      "Astaga": 6575,
      "menghampiri": 6576,
      "Vladimir": 6577,
      "bermekaran": 6578,
      "Bot": 6579,
      "Do": 6580,
      "Dor": 6581,
      "Lan": 6582,
      "Lon": 6583,
      "Lola": 6584,
      "Langkah": 6585,
      "Mir": 6586,
      "Pasi": 6587,
      "Pau": 6588,
      "Run": 6589,
      "Situ": 6590,
      "beng": 6591,
      "ciptakan": 6592,
      "drama": 6593,
      "esai": 6594,
      "saku": 6595,
      "anne": 6596,
      "erai": 6597,
      "inapan": 6598,
      "didapat": 6599,
      "tulus": 6600,
      "bersam": 6601,
      "berlian": 6602,
      "membalik": 6603,
      "perawat": 6604,
      "peringatan": 6605,
      "kejam": 6606,
      "enggara": 6607,
      "mengakses": 6608,
      "mengunjunginya": 6609,
      "terik": 6610,
      "terpercaya": 6611,
      "lear": 6612,
      "ledakan": 6613,
      "illa": 6614,
      "jual": 6615,
      "melindung": 6616,
      "ekat": 6617,
      "tawakan": 6618,
      "ura": 6619,
      "baterai": 6620,
      "konten": 6621,
      "Ted": 6622,
      "Hallowe": 6623,
      "pulasi": 6624,
      "Bulan": 6625,
      "Tuju": 6626,
      "soda": 6627,
      "mint": 6628,
      "sandi": 6629,
      "autisme": 6630,
      "guruan": 6631,
      "nyataan": 6632,
      "lapor": 6633,
      "heran": 6634,
      "kebijaksanaannya": 6635,
      "melampau": 6636,
      "berkelap": 6637,
      "silakan": 6638,
      "memproduksi": 6639,
      "Help": 6640,
      "Bahasa": 6641,
      "mendemonstrasikannya": 6642,
      "malang": 6643,
      "Baltik": 6644,
      "Kindheart": 6645,
      "Victoria": 6646,
      "ukurannya": 6647,
      "sosiologi": 6648,
      "pemberontakan": 6649,
      "santun": 6650,
      "Seringkali": 6651,
      "Happy": 6652,
      "ketenangan": 6653,
      "Perilaku": 6654,
      "Halloween": 6655,
      "melampaui": 6656,
      "Hong": 6657,
      "Long": 6658,
      "Pasti": 6659,
      "Tal": 6660,
      "Ver": 6661,
      "fon": 6662,
      "kil": 6663,
      "mor": 6664,
      "nakal": 6665,
      "ogen": 6666,
      "ramuan": 6667,
      "va": 6668,
      "meneliti": 6669,
      "sepotong": 6670,
      "ditu": 6671,
      "dijadikan": 6672,
      "disesuaikan": 6673,
      "berj": 6674,
      "berkonsentrasi": 6675,
      "berasumsi": 6676,
      "perintah": 6677,
      "bug": 6678,
      "apar": 6679,
      "bias": 6680,
      "terbit": 6681,
      "tercintanya": 6682,
      "liah": 6683,
      "labu": 6684,
      "kuti": 6685,
      "ektar": 6686,
      "penya": 6687,
      "amika": 6688,
      "panye": 6689,
      "bilan": 6690,
      "pengamatan": 6691,
      "Persia": 6692,
      "Bagus": 6693,
      "Kebanyakan": 6694,
      "memuji": 6695,
      "revolusi": 6696,
      "serat": 6697,
      "ampung": 6698,
      "menariknya": 6699,
      "kapas": 6700,
      "pertamanya": 6701,
      "balas": 6702,
      "avi": 6703,
      "hop": 6704,
      "individualitas": 6705,
      "Kereta": 6706,
      "Pepe": 6707,
      "Pengu": 6708,
      "param": 6709,
      "feder": 6710,
      "ove": 6711,
      "Johnny": 6712,
      "renda": 6713,
      "tolong": 6714,
      "berebut": 6715,
      "Petunia": 6716,
      "idenya": 6717,
      "veda": 6718,
      "lumba": 6719,
      "mewariskan": 6720,
      "Matahari": 6721,
      "dilihatnya": 6722,
      "Partai": 6723,
      "celana": 6724,
      "astron": 6725,
      "Gunung": 6726,
      "Maksudnya": 6727,
      "terancam": 6728,
      "ritme": 6729,
      "Pedro": 6730,
      "pertukaran": 6731,
      "otomatis": 6732,
      "Buddha": 6733,
      ".,": 6734,
      "Hy": 6735,
      "Ph": 6736,
      "baris": 6737,
      "canya": 6738,
      "ll": 6739,
      "mama": 6740,
      "rencanakan": 6741,
      "sapa": 6742,
      "yland": 6743,
      "integ": 6744,
      "mende": 6745,
      "diisi": 6746,
      "dialami": 6747,
      "bermeditasi": 6748,
      "bereksperimen": 6749,
      "dayakan": 6750,
      "menginginkannya": 6751,
      "jaz": 6752,
      "lih": 6753,
      "limun": 6754,
      "ilya": 6755,
      "patah": 6756,
      "onder": 6757,
      "penampilannya": 6758,
      "payung": 6759,
      "hut": 6760,
      "Sebagian": 6761,
      "manajemen": 6762,
      "pisau": 6763,
      "memuaskan": 6764,
      "culan": 6765,
      "ajaannya": 6766,
      "usiaan": 6767,
      "Berkat": 6768,
      "bijaknya": 6769,
      "book": 6770,
      "tasiun": 6771,
      "menerbangkan": 6772,
      "biracial": 6773,
      "empur": 6774,
      "tindakannya": 6775,
      "hakim": 6776,
      "menurutnya": 6777,
      "tone": 6778,
      "diperhatikan": 6779,
      "bukunya": 6780,
      "Biarkan": 6781,
      "Temannya": 6782,
      "geografi": 6783,
      "Pegunungan": 6784,
      "jumpa": 6785,
      "oppy": 6786,
      "dimaksudkan": 6787,
      "pustakawan": 6788,
      "seumur": 6789,
      "nasionalisme": 6790,
      "setapak": 6791,
      "Negeri": 6792,
      "impikan": 6793,
      "carilah": 6794,
      "ront": 6795,
      "ancaman": 6796,
      "Dulu": 6797,
      "bayinya": 6798,
      "dongeng": 6799,
      "ngobrol": 6800,
      "mindfulness": 6801,
      "radio": 6802,
      "Hitam": 6803,
      "menghidupkan": 6804,
      "email": 6805,
      "kerabat": 6806,
      "Ayurveda": 6807,
      "London": 6808,
      "AP": 6809,
      "Adat": 6810,
      "Aturan": 6811,
      "Belajar": 6812,
      "Bos": 6813,
      "SE": 6814,
      "SI": 6815,
      "Sas": 6816,
      "Vir": 6817,
      "val": 6818,
      "wang": 6819,
      "ans": 6820,
      "andang": 6821,
      "erensi": 6822,
      "dipikirkan": 6823,
      "berangi": 6824,
      "berdiskusi": 6825,
      "perminta": 6826,
      "perguruan": 6827,
      "order": 6828,
      "terburu": 6829,
      "ces": 6830,
      "imig": 6831,
      "kuliah": 6832,
      "melele": 6833,
      "alien": 6834,
      "pendukung": 6835,
      "penjelasan": 6836,
      "kerajaannya": 6837,
      "amida": 6838,
      "hie": 6839,
      "alahkan": 6840,
      "mantra": 6841,
      "ingatkah": 6842,
      "nyanyian": 6843,
      "real": 6844,
      "tetapkan": 6845,
      "istis": 6846,
      "Self": 6847,
      "dato": 6848,
      "Ingatkah": 6849,
      "Tugas": 6850,
      "liner": 6851,
      "Undang": 6852,
      "Memiliki": 6853,
      "verbal": 6854,
      "Aljaz": 6855,
      "tenun": 6856,
      "konferensi": 6857,
      "Argent": 6858,
      "wegia": 6859,
      "adikmu": 6860,
      "umumnya": 6861,
      "Eng": 6862,
      "Norwegia": 6863,
      "Kurdi": 6864,
      "Brain": 6865,
      "neuron": 6866,
      "Histor": 6867,
      "Fluffy": 6868,
      "Amira": 6869,
      "kejujuran": 6870,
      "Eddie": 6871,
      "berisiko": 6872,
      "subjek": 6873,
      "Sesampainya": 6874,
      "Elizabeth": 6875,
      "Aljazair": 6876,
      "Argentina": 6877,
      "11": 6878,
      "AI": 6879,
      "Cy": 6880,
      "Ex": 6881,
      "Gangg": 6882,
      "Her": 6883,
      "Ki": 6884,
      "Mati": 6885,
      "Nik": 6886,
      "Pilihan": 6887,
      "Ras": 6888,
      "Sing": 6889,
      "Tina": 6890,
      "acak": 6891,
      "brak": 6892,
      "ghan": 6893,
      "maj": 6894,
      "nitur": 6895,
      "sah": 6896,
      "stasiun": 6897,
      "wannya": 6898,
      "intu": 6899,
      "menir": 6900,
      "sejumlah": 6901,
      "diikuti": 6902,
      "bermun": 6903,
      "bertingkah": 6904,
      "asin": 6905,
      "pergerakan": 6906,
      "perkasa": 6907,
      "pernyataan": 6908,
      "babi": 6909,
      "jagung": 6910,
      "gie": 6911,
      "patri": 6912,
      "onton": 6913,
      "kolase": 6914,
      "pagar": 6915,
      "harian": 6916,
      "panah": 6917,
      "panel": 6918,
      "harum": 6919,
      "hur": 6920,
      "omba": 6921,
      "Setuju": 6922,
      "pakatan": 6923,
      "pemarah": 6924,
      "semi": 6925,
      "Bennie": 6926,
      "Terinspirasi": 6927,
      "konsul": 6928,
      "konservasi": 6929,
      "spek": 6930,
      "pelatih": 6931,
      "bisikkan": 6932,
      "palsu": 6933,
      "mengumumkan": 6934,
      "menabrak": 6935,
      "Takdir": 6936,
      "kesepakatan": 6937,
      "emason": 6938,
      "hero": 6939,
      "paru": 6940,
      "Carlos": 6941,
      "Kakak": 6942,
      "gitar": 6943,
      "dihadapi": 6944,
      "pemula": 6945,
      "Colum": 6946,
      "Santa": 6947,
      "Atlan": 6948,
      "Bangsa": 6949,
      "vitamin": 6950,
      "pilot": 6951,
      "narko": 6952,
      "Apple": 6953,
      "menelusuri": 6954,
      "padamu": 6955,
      "furnitur": 6956,
      "berserakan": 6957,
      "melindunginya": 6958,
      "permintaan": 6959,
      "Gangguan": 6960,
      "bermunculan": 6961,
      "14": 6962,
      "CB": 6963,
      "Et": 6964,
      "Eri": 6965,
      "Kay": 6966,
      "Paris": 6967,
      "detak": 6968,
      "gin": 6969,
      "nanya": 6970,
      "palu": 6971,
      "praktikkan": 6972,
      "ring": 6973,
      "ret": 6974,
      "som": 6975,
      "yian": 6976,
      "andia": 6977,
      "eni": 6978,
      "atem": 6979,
      "investasi": 6980,
      "meneg": 6981,
      "setia": 6982,
      "dibentuk": 6983,
      "dibuka": 6984,
      "diucapkan": 6985,
      "alang": 6986,
      "alville": 6987,
      "kanan": 6988,
      "kanvas": 6989,
      "asy": 6990,
      "asur": 6991,
      "kegel": 6992,
      "tertutup": 6993,
      "terjangkau": 6994,
      "bandara": 6995,
      "irup": 6996,
      "lukkan": 6997,
      "barangan": 6998,
      "putus": 6999,
      "penam": 7000,
      "saatnya": 7001,
      "atie": 7002,
      "penginapan": 7003,
      "menghirup": 7004,
      "sembarangan": 7005,
      "tre": 7006,
      "rep": 7007,
      "tein": 7008,
      "menyeberangi": 7009,
      "airnya": 7010,
      "lemari": 7011,
      "menertawakan": 7012,
      "prihat": 7013,
      "menandai": 7014,
      "hormon": 7015,
      "semaksimal": 7016,
      "kakas": 7017,
      "kulitnya": 7018,
      "Master": 7019,
      "osok": 7020,
      "mengering": 7021,
      "pras": 7022,
      "efek": 7023,
      "Rio": 7024,
      "Hubungan": 7025,
      "relawan": 7026,
      "**:": 7027,
      "psikoterapis": 7028,
      "Micha": 7029,
      "Freemason": 7030,
      "Cukup": 7031,
      "diajak": 7032,
      "jawabannya": 7033,
      "Contoh": 7034,
      "Brit": 7035,
      "kemanusiaan": 7036,
      "diterapkan": 7037,
      "Foxy": 7038,
      "Strategi": 7039,
      "Guatem": 7040,
      "Cerita": 7041,
      "Frank": 7042,
      "dedikasikan": 7043,
      "ampunan": 7044,
      "Twink": 7045,
      "Tony": 7046,
      "ghanistan": 7047,
      "narkoba": 7048,
      "Michael": 7049,
      "Guatemala": 7050,
      "Bro": 7051,
      "Deng": 7052,
      "Ek": 7053,
      "HD": 7054,
      "Has": 7055,
      "Kid": 7056,
      "Katie": 7057,
      "Nel": 7058,
      "Pekerja": 7059,
      "SM": 7060,
      "Sis": 7061,
      "Tek": 7062,
      "Zara": 7063,
      "dll": 7064,
      "fsir": 7065,
      "idi": 7066,
      "klas": 7067,
      "ning": 7068,
      "nografi": 7069,
      "prakti": 7070,
      "rim": 7071,
      "sorak": 7072,
      "tat": 7073,
      "yan": 7074,
      "akkan": 7075,
      "diba": 7076,
      "disimpan": 7077,
      "ale": 7078,
      "berkebun": 7079,
      "asar": 7080,
      "memun": 7081,
      "perkakas": 7082,
      "apal": 7083,
      "iting": 7084,
      "badi": 7085,
      "mering": 7086,
      "legen": 7087,
      "sulap": 7088,
      "denganku": 7089,
      "oner": 7090,
      "onisasi": 7091,
      "inim": 7092,
      "riang": 7093,
      "penemu": 7094,
      "pologi": 7095,
      "mani": 7096,
      "penghalang": 7097,
      "memperlambat": 7098,
      "Suara": 7099,
      "buruh": 7100,
      "Tech": 7101,
      "Berapa": 7102,
      "Berikutnya": 7103,
      "Tepatnya": 7104,
      "rangkaian": 7105,
      "elepon": 7106,
      "Belle": 7107,
      "iraun": 7108,
      "kson": 7109,
      "mengingatkanku": 7110,
      "Afghanistan": 7111,
      "Sophia": 7112,
      "respons": 7113,
      "fic": 7114,
      "Pemer": 7115,
      "putaran": 7116,
      "fotogra": 7117,
      "Semacam": 7118,
      "dinamis": 7119,
      "membersihkannya": 7120,
      "menangkapnya": 7121,
      "kompleksitas": 7122,
      "truktur": 7123,
      "piano": 7124,
      "Nordik": 7125,
      "petir": 7126,
      "asiswa": 7127,
      "penawaran": 7128,
      "bayaran": 7129,
      "ekstrem": 7130,
      "ADHD": 7131,
      "familiar": 7132,
      "Taylor": 7133,
      "menyayangi": 7134,
      "Waktu": 7135,
      "13": 7136,
      "50": 7137,
      "Batu": 7138,
      "Ching": 7139,
      "Cot": 7140,
      "Dar": 7141,
      "ES": 7142,
      "Hati": 7143,
      "IK": 7144,
      "Ivan": 7145,
      "Jay": 7146,
      "Jane": 7147,
      "LP": 7148,
      "Ok": 7149,
      "PT": 7150,
      "Posi": 7151,
      "Rho": 7152,
      "Saha": 7153,
      "aga": 7154,
      "bong": 7155,
      "gik": 7156,
      "iaran": 7157,
      "lori": 7158,
      "ps": 7159,
      "rannya": 7160,
      "menuangkan": 7161,
      "sebarkan": 7162,
      "unis": 7163,
      "dijelajahi": 7164,
      "amilan": 7165,
      "tuan": 7166,
      "berpaling": 7167,
      "berukuran": 7168,
      "bersalju": 7169,
      "persembun": 7170,
      "itoba": 7171,
      "bisikan": 7172,
      "terbakar": 7173,
      "like": 7174,
      "ilustrasi": 7175,
      "melapor": 7176,
      "diadakan": 7177,
      "padai": 7178,
      "pulih": 7179,
      "koki": 7180,
      "panci": 7181,
      "polar": 7182,
      "Sekutu": 7183,
      "sarjana": 7184,
      "pidato": 7185,
      "Perjanjian": 7186,
      "kemis": 7187,
      "rokok": 7188,
      "Sue": 7189,
      "Suci": 7190,
      "serunya": 7191,
      "kompulsif": 7192,
      "agresi": 7193,
      "properti": 7194,
      "pikiranmu": 7195,
      "jid": 7196,
      "hangatnya": 7197,
      "kumpulan": 7198,
      "gelam": 7199,
      "Karen": 7200,
      "Robert": 7201,
      "bulunya": 7202,
      "diperintah": 7203,
      "Kaisar": 7204,
      "rahasianya": 7205,
      "menyertakan": 7206,
      "egangkan": 7207,
      "psikologis": 7208,
      "berkeliaran": 7209,
      "kriket": 7210,
      "Manitoba": 7211,
      "Riley": 7212,
      "mengajaknya": 7213,
      "Kemerdekaan": 7214,
      "Kura": 7215,
      "mengilap": 7216,
      "menempelkan": 7217,
      "tenggelam": 7218,
      "kesukaannya": 7219,
      "penjajahan": 7220,
      "Chippy": 7221,
      "Pemandu": 7222,
      "kelebih": 7223,
      "multikultur": 7224,
      "about": 7225,
      "mengulangi": 7226,
      "Denmark": 7227,
      "kanguru": 7228,
      "umputan": 7229,
      "gejala": 7230,
      "Pasifik": 7231,
      "kutipan": 7232,
      "England": 7233,
      "Rhode": 7234,
      "Sahabat": 7235,
      "persembunyian": 7236,
      "'.\"": 7237,
      "Ai": 7238,
      "Del": 7239,
      "Dol": 7240,
      "Eur": 7241,
      "Good": 7242,
      "Jake": 7243,
      "Len": 7244,
      "Lilly": 7245,
      "Mesin": 7246,
      "Nikmati": 7247,
      "Pria": 7248,
      "Pix": 7249,
      "Stu": 7250,
      "Sain": 7251,
      "Shel": 7252,
      "You": 7253,
      "ace": 7254,
      "hindari": 7255,
      "jarang": 7256,
      "luncur": 7257,
      "rekon": 7258,
      "skat": 7259,
      "skala": 7260,
      "xi": 7261,
      "instru": 7262,
      "mendesain": 7263,
      "sepo": 7264,
      "diku": 7265,
      "didukung": 7266,
      "diakses": 7267,
      "ditetapkan": 7268,
      "berg": 7269,
      "bersuara": 7270,
      "kandang": 7271,
      "tiwi": 7272,
      "membung": 7273,
      "membungkus": 7274,
      "peroleh": 7275,
      "buyut": 7276,
      "kesatuan": 7277,
      "apkannya": 7278,
      "baja": 7279,
      "badah": 7280,
      "bipolar": 7281,
      "mengalihkan": 7282,
      "ora": 7283,
      "merata": 7284,
      "terkendali": 7285,
      "gilan": 7286,
      "sukul": 7287,
      "supor": 7288,
      "duka": 7289,
      "umpang": 7290,
      "mad": 7291,
      "dapatkan": 7292,
      "penind": 7293,
      "menying": 7294,
      "benak": 7295,
      "urangan": 7296,
      "gala": 7297,
      "pengas": 7298,
      "pengguna": 7299,
      "pengampunan": 7300,
      "Perbedaan": 7301,
      "Peristiwa": 7302,
      "Pertiwi": 7303,
      "utra": 7304,
      "tinggali": 7305,
      "Keselamatan": 7306,
      "Terke": 7307,
      "referensi": 7308,
      "taktik": 7309,
      "teater": 7310,
      "age": 7311,
      "Buddy": 7312,
      "rambu": 7313,
      "pasokan": 7314,
      "wahana": 7315,
      "siklus": 7316,
      "other": 7317,
      "keterbukaan": 7318,
      "favoritku": 7319,
      "kepuasan": 7320,
      "Menjaga": 7321,
      "chel": 7322,
      "mengemasi": 7323,
      "sepsi": 7324,
      "ganda": 7325,
      "pemeriksa": 7326,
      "angkaian": 7327,
      "penyandang": 7328,
      "here": 7329,
      "hitung": 7330,
      "gagah": 7331,
      "Pete": 7332,
      "kendala": 7333,
      "sarankan": 7334,
      "meletakkannya": 7335,
      "simpulannya": 7336,
      "ciptaan": 7337,
      "Friend": 7338,
      "Reddy": 7339,
      "feminisme": 7340,
      "mungilnya": 7341,
      "rerumputan": 7342,
      "membedakan": 7343,
      "pernikahan": 7344,
      "Sekalipun": 7345,
      "menurunkan": 7346,
      "asuransi": 7347,
      "prasangka": 7348,
      "lorida": 7349,
      "instrumen": 7350,
      "sukulen": 7351,
      "suportif": 7352,
      ":**": 7353,
      "AH": 7354,
      "Blue": 7355,
      "Fir": 7356,
      "Gi": 7357,
      "Kau": 7358,
      "Mosko": 7359,
      "NLP": 7360,
      "Rasa": 7361,
      "Sc": 7362,
      "Saran": 7363,
      "Singkat": 7364,
      "Tenggara": 7365,
      "esia": 7366,
      "ld": 7367,
      "pari": 7368,
      "sha": 7369,
      "vokasi": 7370,
      "invasi": 7371,
      "sekecil": 7372,
      "dilahir": 7373,
      "bersin": 7374,
      "tiganya": 7375,
      "bugar": 7376,
      "kedai": 7377,
      "mengikut": 7378,
      "mengesan": 7379,
      "gih": 7380,
      "ild": 7381,
      "iriman": 7382,
      "wait": 7383,
      "isakan": 7384,
      "isata": 7385,
      "hatilah": 7386,
      "membukanya": 7387,
      "penjara": 7388,
      "menyisakan": 7389,
      "masak": 7390,
      "pengadilan": 7391,
      "pembesar": 7392,
      "pembangun": 7393,
      "elahan": 7394,
      "Persahabatan": 7395,
      "Percak": 7396,
      "besarkan": 7397,
      "duni": 7398,
      "kalung": 7399,
      "menyala": 7400,
      "ayani": 7401,
      "tualangan": 7402,
      "timid": 7403,
      "garam": 7404,
      "belakangnya": 7405,
      "pendapatan": 7406,
      "Olivia": 7407,
      "Petualangan": 7408,
      "Maro": 7409,
      "dipanggang": 7410,
      "Mobil": 7411,
      "afkan": 7412,
      "Lisa": 7413,
      "Komunitas": 7414,
      "runtuh": 7415,
      "kekhawatirannya": 7416,
      "piramida": 7417,
      "Universitas": 7418,
      "kolonialisme": 7419,
      "ations": 7420,
      "gulung": 7421,
      "ancy": 7422,
      "lakinya": 7423,
      "visualisasi": 7424,
      "dedikasi": 7425,
      "biologis": 7426,
      "kepingan": 7427,
      "Rabbit": 7428,
      "mintalah": 7429,
      "laporan": 7430,
      "majalah": 7431,
      "Atlantik": 7432,
      "kegelapan": 7433,
      "fsirkan": 7434,
      "kelebihan": 7435,
      "dilahirkan": 7436,
      "Percakapan": 7437,
      "timidasi": 7438,
      "!'": 7439,
      "30": 7440,
      "Abad": 7441,
      "Cah": 7442,
      "Dom": 7443,
      "Fes": 7444,
      "Ga": 7445,
      "Jon": 7446,
      "OL": 7447,
      "Pang": 7448,
      "Sum": 7449,
      "Sami": 7450,
      "Star": 7451,
      "Wel": 7452,
      "Zaman": 7453,
      "ach": 7454,
      "bles": 7455,
      "gaman": 7456,
      "lantang": 7457,
      "nektar": 7458,
      "rapat": 7459,
      "wen": 7460,
      "wali": 7461,
      "ers": 7462,
      "eranan": 7463,
      "aktiv": 7464,
      "menelepon": 7465,
      "diser": 7466,
      "dialog": 7467,
      "berbulan": 7468,
      "membisikkan": 7469,
      "perlawanan": 7470,
      "biara": 7471,
      "bikar": 7472,
      "ilu": 7473,
      "melayani": 7474,
      "tembikar": 7475,
      "paus": 7476,
      "aluri": 7477,
      "selera": 7478,
      "pengiriman": 7479,
      "Perteng": 7480,
      "sempit": 7481,
      "rantai": 7482,
      "Bentuk": 7483,
      "serangkaian": 7484,
      "kaleng": 7485,
      "cacing": 7486,
      "gerilya": 7487,
      "Butuh": 7488,
      "owongan": 7489,
      "tentukan": 7490,
      "menaklukkan": 7491,
      "upkan": 7492,
      "Membangun": 7493,
      "Bello": 7494,
      "memantul": 7495,
      "ulasi": 7496,
      "keheranan": 7497,
      "lapis": 7498,
      "fish": 7499,
      "Mart": 7500,
      "Saf": 7501,
      "renyah": 7502,
      "pornografi": 7503,
      "menyelidi": 7504,
      "Tanaman": 7505,
      "televisi": 7506,
      "cincin": 7507,
      "mengarahkan": 7508,
      "Pantai": 7509,
      "sekelasnya": 7510,
      "Ceritakan": 7511,
      "Friends": 7512,
      "karier": 7513,
      "dolar": 7514,
      "norma": 7515,
      "mengecat": 7516,
      "Curious": 7517,
      "mekanisme": 7518,
      "vaksin": 7519,
      "Mirip": 7520,
      "Cyber": 7521,
      "Moskow": 7522,
      "mengesankan": 7523,
      "Pertengahan": 7524,
      "Ac": 7525,
      "Ari": 7526,
      "Data": 7527,
      "Francis": 7528,
      "Florida": 7529,
      "Gel": 7530,
      "Lib": 7531,
      "Mah": 7532,
      "Nama": 7533,
      "Nov": 7534,
      "Pra": 7535,
      "Paw": 7536,
      "Sy": 7537,
      "Spr": 7538,
      "ade": 7539,
      "ghal": 7540,
      "jinya": 7541,
      "jati": 7542,
      "kung": 7543,
      "linis": 7544,
      "mam": 7545,
      "naluri": 7546,
      "paku": 7547,
      "spa": 7548,
      "slot": 7549,
      "valu": 7550,
      "erosi": 7551,
      "eno": 7552,
      "dipat": 7553,
      "all": 7554,
      "berminggu": 7555,
      "tiang": 7556,
      "memilik": 7557,
      "ito": 7558,
      "itra": 7559,
      "bik": 7560,
      "bikin": 7561,
      "mengant": 7562,
      "terbaru": 7563,
      "terbiasa": 7564,
      "terbangan": 7565,
      "terganggu": 7566,
      "terowongan": 7567,
      "beterbangan": 7568,
      "observasi": 7569,
      "onto": 7570,
      "jubah": 7571,
      "ajang": 7572,
      "mag": 7573,
      "koper": 7574,
      "penjahat": 7575,
      "membuatkan": 7576,
      "masker": 7577,
      "gunanya": 7578,
      "Secara": 7579,
      "Perpustakaan": 7580,
      "uth": 7581,
      "mempermudah": 7582,
      "ampas": 7583,
      "khas": 7584,
      "ave": 7585,
      "log": 7586,
      "energik": 7587,
      "otin": 7588,
      "turut": 7589,
      "turnamen": 7590,
      "visa": 7591,
      "gelisah": 7592,
      "Meny": 7593,
      "jarinya": 7594,
      "canggih": 7595,
      "menggo": 7596,
      "Program": 7597,
      "rasis": 7598,
      "panggilan": 7599,
      "Kuwait": 7600,
      "Kansas": 7601,
      "opia": 7602,
      "alaupun": 7603,
      "ternak": 7604,
      "Modern": 7605,
      "melambai": 7606,
      "Mughal": 7607,
      "penutup": 7608,
      "kakeknya": 7609,
      "staf": 7610,
      "stro": 7611,
      "Theo": 7612,
      "sukarela": 7613,
      "transformasi": 7614,
      "Rusa": 7615,
      "desanya": 7616,
      "ddles": 7617,
      "Disorder": 7618,
      "menggantikan": 7619,
      "mekar": 7620,
      "penjuru": 7621,
      "Lingkungan": 7622,
      "dirawat": 7623,
      "Breezy": 7624,
      "Blibber": 7625,
      "punggung": 7626,
      "meringkuk": 7627,
      "pemeriksaan": 7628,
      "Maroko": 7629,
      "Cahaya": 7630,
      "AK": 7631,
      "Au": 7632,
      "Adik": 7633,
      "Ath": 7634,
      "DI": 7635,
      "Der": 7636,
      "Front": 7637,
      "IC": 7638,
      "Lar": 7639,
      "NC": 7640,
      "Paman": 7641,
      "Pilih": 7642,
      "Ray": 7643,
      "Smar": 7644,
      "Um": 7645,
      "bkannya": 7646,
      "bow": 7647,
      "dra": 7648,
      "drum": 7649,
      "gran": 7650,
      "ming": 7651,
      "stel": 7652,
      "zil": 7653,
      "anek": 7654,
      "erto": 7655,
      "atrak": 7656,
      "diw": 7657,
      "dimasukkan": 7658,
      "beran": 7659,
      "berayun": 7660,
      "asuk": 7661,
      "tisi": 7662,
      "kayak": 7663,
      "kabin": 7664,
      "membakar": 7665,
      "meminim": 7666,
      "perde": 7667,
      "mengalahkan": 7668,
      "terku": 7669,
      "terkini": 7670,
      "sih": 7671,
      "siapakah": 7672,
      "lav": 7673,
      "aragaman": 7674,
      "suf": 7675,
      "bahu": 7676,
      "ontong": 7677,
      "entah": 7678,
      "kuliner": 7679,
      "lusinya": 7680,
      "melarang": 7681,
      "usah": 7682,
      "sensasi": 7683,
      "tag": 7684,
      "tail": 7685,
      "anakah": 7686,
      "mantel": 7687,
      "penglihat": 7688,
      "penghasil": 7689,
      "pemilu": 7690,
      "kecilku": 7691,
      "rayakan": 7692,
      "sembuh": 7693,
      "Kebaikan": 7694,
      "navi": 7695,
      "Mengon": 7696,
      "Dibutuhkan": 7697,
      "lemak": 7698,
      "budayaan": 7699,
      "memberikannya": 7700,
      "linik": 7701,
      "Penulis": 7702,
      "ketertarikan": 7703,
      "menakjubkannya": 7704,
      "tidurnya": 7705,
      "jaring": 7706,
      "tonton": 7707,
      "menafsirkan": 7708,
      "perhatiannya": 7709,
      "ganja": 7710,
      "keajaibannya": 7711,
      "krimin": 7712,
      "cakra": 7713,
      "perialisme": 7714,
      "dinamika": 7715,
      "memecah": 7716,
      "letaknya": 7717,
      "work": 7718,
      "kaitannya": 7719,
      "pemuda": 7720,
      "cangkangnya": 7721,
      "moyangnya": 7722,
      "ujungnya": 7723,
      "ditunjukkan": 7724,
      "kegirangan": 7725,
      "lereng": 7726,
      "Wales": 7727,
      "Park": 7728,
      "ukiran": 7729,
      "menggeli": 7730,
      "Panduan": 7731,
      "Brazil": 7732,
      "kolonial": 7733,
      "kelahiran": 7734,
      "Stre": 7735,
      "Quebec": 7736,
      "Bird": 7737,
      "menaruhnya": 7738,
      "berkesan": 7739,
      "esensial": 7740,
      "detektif": 7741,
      "menuntut": 7742,
      "arkeolog": 7743,
      "menyalahkan": 7744,
      "astronot": 7745,
      "praktis": 7746,
      "apalagi": 7747,
      "Lenny": 7748,
      "Festival": 7749,
      "Pangeran": 7750,
      "memilikinya": 7751,
      "anekaragaman": 7752,
      "Bekerja": 7753,
      "Gul": 7754,
      "Hum": 7755,
      "Kong": 7756,
      "Mag": 7757,
      "Mid": 7758,
      "Minggu": 7759,
      "Sat": 7760,
      "Sti": 7761,
      "Ste": 7762,
      "Slo": 7763,
      "Sutra": 7764,
      "Tanya": 7765,
      "Wan": 7766,
      "celah": 7767,
      "col": 7768,
      "evolusi": 7769,
      "flu": 7770,
      "fre": 7771,
      "parkan": 7772,
      "spe": 7773,
      "ugg": 7774,
      "arm": 7775,
      "mendasar": 7776,
      "menampung": 7777,
      "seputar": 7778,
      "diselesaikan": 7779,
      "yaan": 7780,
      "amal": 7781,
      "berair": 7782,
      "berpotensi": 7783,
      "bergelombang": 7784,
      "bermigrasi": 7785,
      "bertempur": 7786,
      "berbedanya": 7787,
      "memimpikan": 7788,
      "eld": 7789,
      "keemasan": 7790,
      "keping": 7791,
      "badikan": 7792,
      "mengapung": 7793,
      "ordin": 7794,
      "merdu": 7795,
      "terkecil": 7796,
      "terumbu": 7797,
      "saing": 7798,
      "sabuk": 7799,
      "sili": 7800,
      "lega": 7801,
      "legal": 7802,
      "patut": 7803,
      "asainya": 7804,
      "rip": 7805,
      "etri": 7806,
      "kop": 7807,
      "mudanya": 7808,
      "karen": 7809,
      "pace": 7810,
      "menyes": 7811,
      "masjid": 7812,
      "egas": 7813,
      "urban": 7814,
      "barui": 7815,
      "rump": 7816,
      "kemeja": 7817,
      "Suzy": 7818,
      "kenyang": 7819,
      "kombin": 7820,
      "burkan": 7821,
      "diandalkan": 7822,
      "kontra": 7823,
      "begitulah": 7824,
      "alamat": 7825,
      "Titi": 7826,
      "mos": 7827,
      "mood": 7828,
      "mosaik": 7829,
      "Bersenang": 7830,
      "adapkan": 7831,
      "membangunnya": 7832,
      "profesor": 7833,
      "lurkan": 7834,
      "board": 7835,
      "disambut": 7836,
      "paspor": 7837,
      "turis": 7838,
      "batuk": 7839,
      "Memasuk": 7840,
      "seharian": 7841,
      "perempuannya": 7842,
      "Melvin": 7843,
      "garpu": 7844,
      "Big": 7845,
      "menguasainya": 7846,
      "ogle": 7847,
      "Pemimpin": 7848,
      "panggil": 7849,
      "hitungan": 7850,
      "Neneknya": 7851,
      "perisai": 7852,
      "melebar": 7853,
      "lokasinya": 7854,
      "ggy": 7855,
      "berevolusi": 7856,
      "dihadapkan": 7857,
      "menyentuhnya": 7858,
      "tomat": 7859,
      "dagangkan": 7860,
      "Puerto": 7861,
      "domba": 7862,
      "membimbingnya": 7863,
      "Entah": 7864,
      "satria": 7865,
      "inklusivitas": 7866,
      "pelabuhan": 7867,
      "Angkatan": 7868,
      "urusan": 7869,
      "Misalkan": 7870,
      "inovatif": 7871,
      "sastra": 7872,
      "swana": 7873,
      "swadaya": 7874,
      "Google": 7875,
      "personal": 7876,
      "kelemahan": 7877,
      "pengelola": 7878,
      "bohong": 7879,
      "olosseum": 7880,
      "Thanks": 7881,
      "sepoi": 7882,
      "membungkuk": 7883,
      "adegan": 7884,
      "atraksi": 7885,
      "meminimalkan": 7886,
      "Mengonsumsi": 7887,
      "Wanita": 7888,
      "Memasukkan": 7889,
      "Aki": 7890,
      "Bahan": 7891,
      "Cek": 7892,
      "Cinta": 7893,
      "Eko": 7894,
      "Jalan": 7895,
      "Play": 7896,
      "UE": 7897,
      "cle": 7898,
      "dr": 7899,
      "atasi": 7900,
      "menata": 7901,
      "seimbangan": 7902,
      "ditempat": 7903,
      "dipengaruhi": 7904,
      "dikumpulkan": 7905,
      "ditentukan": 7906,
      "tuaku": 7907,
      "berker": 7908,
      "berapi": 7909,
      "berkolaborasi": 7910,
      "ashi": 7911,
      "tie": 7912,
      "membaik": 7913,
      "perbuatan": 7914,
      "kece": 7915,
      "ketinggi": 7916,
      "mengantar": 7917,
      "mengangkut": 7918,
      "terbangun": 7919,
      "terjadinya": 7920,
      "termotivasi": 7921,
      "terbebani": 7922,
      "lien": 7923,
      "gila": 7924,
      "untukmu": 7925,
      "cek": 7926,
      "ons": 7927,
      "enthe": 7928,
      "waan": 7929,
      "wayang": 7930,
      "wawan": 7931,
      "penonton": 7932,
      "penumpang": 7933,
      "karunia": 7934,
      "tadinya": 7935,
      "baiki": 7936,
      "menyeg": 7937,
      "ess": 7938,
      "kelelahan": 7939,
      "kelontong": 7940,
      "pandemi": 7941,
      "master": 7942,
      "bangku": 7943,
      "Intern": 7944,
      "petik": 7945,
      "pengaman": 7946,
      "pipa": 7947,
      "Perusahaan": 7948,
      "antungan": 7949,
      "Kesehatan": 7950,
      "Kesimpulannya": 7951,
      "med": 7952,
      "serasi": 7953,
      "tinggallah": 7954,
      "lalui": 7955,
      "tangani": 7956,
      "gerah": 7957,
      "indar": 7958,
      "kapten": 7959,
      "terhitung": 7960,
      "Bul": 7961,
      "Bucky": 7962,
      "pasta": 7963,
      "gelar": 7964,
      "coaster": 7965,
      "kehamilan": 7966,
      "haus": 7967,
      "Sop": 7968,
      "menganggukkan": 7969,
      "penduduknya": 7970,
      "Bibi": 7971,
      "penyele": 7972,
      "elawar": 7973,
      "gilirannya": 7974,
      "opini": 7975,
      "Carol": 7976,
      "wajahnya": 7977,
      "superhero": 7978,
      "menjualnya": 7979,
      "mahkota": 7980,
      "Lila": 7981,
      "ford": 7982,
      "mendekatinya": 7983,
      "ografis": 7984,
      "pencipta": 7985,
      "mengklaim": 7986,
      "mengintip": 7987,
      "North": 7988,
      "dicapai": 7989,
      "memeluknya": 7990,
      "Charles": 7991,
      "pinggi": 7992,
      "dikendalikan": 7993,
      "miniatur": 7994,
      "memaafkan": 7995,
      "Jacob": 7996,
      "Snugg": 7997,
      "oksigen": 7998,
      "habisnya": 7999,
      "pelayaran": 8000,
      "licik": 8001,
      "Eric": 8002,
      "Twinkle": 8003,
      "PTSD": 8004,
      "rasisme": 8005,
      "perdebatan": 8006,
      "penglihatan": 8007,
      "ditempatkan": 8008,
      "entheogen": 8009,
      "wawancara": 8010,
      ".)": 8011,
      "200": 8012,
      "Aus": 8013,
      "BA": 8014,
      "Bas": 8015,
      "Cro": 8016,
      "Day": 8017,
      "Fer": 8018,
      "Hor": 8019,
      "Kun": 8020,
      "Letak": 8021,
      "Mindi": 8022,
      "Molly": 8023,
      "Ob": 8024,
      "One": 8025,
      "Pah": 8026,
      "Phi": 8027,
      "Pres": 8028,
      "Spi": 8029,
      "aduk": 8030,
      "abadi": 8031,
      "eh": 8032,
      "eal": 8033,
      "gratis": 8034,
      "gantungan": 8035,
      "jo": 8036,
      "kiri": 8037,
      "klien": 8038,
      "now": 8039,
      "oh": 8040,
      "ole": 8041,
      "out": 8042,
      "pia": 8043,
      "rajin": 8044,
      "sakan": 8045,
      "sonal": 8046,
      "tambahkan": 8047,
      "utan": 8048,
      "wo": 8049,
      "segi": 8050,
      "ditarik": 8051,
      "dimulailah": 8052,
      "didedikasikan": 8053,
      "bergem": 8054,
      "berbau": 8055,
      "berjabat": 8056,
      "berbohong": 8057,
      "ash": 8058,
      "tic": 8059,
      "membebani": 8060,
      "bum": 8061,
      "bag": 8062,
      "mengemu": 8063,
      "saian": 8064,
      "denganmu": 8065,
      "bebek": 8066,
      "oby": 8067,
      "emuinya": 8068,
      "duri": 8069,
      "asihat": 8070,
      "hatimu": 8071,
      "usal": 8072,
      "senapan": 8073,
      "penari": 8074,
      "penangg": 8075,
      "pendatang": 8076,
      "karton": 8077,
      "kerjakan": 8078,
      "dangkan": 8079,
      "eso": 8080,
      "kelihatannya": 8081,
      "kelaparan": 8082,
      "gunya": 8083,
      "Sedih": 8084,
      "menghangat": 8085,
      "pipi": 8086,
      "besaran": 8087,
      "sembilan": 8088,
      "serikat": 8089,
      "kompos": 8090,
      "menyewa": 8091,
      "sediakan": 8092,
      "sekitarmu": 8093,
      "ayanya": 8094,
      "daraan": 8095,
      "lauan": 8096,
      "ampuh": 8097,
      "gempa": 8098,
      "ucapan": 8099,
      "Tudor": 8100,
      "menerangi": 8101,
      "kekurangan": 8102,
      "orium": 8103,
      "Ahli": 8104,
      "Siapakah": 8105,
      "Kutu": 8106,
      "Istana": 8107,
      "aksesoris": 8108,
      "them": 8109,
      "terkesan": 8110,
      "jeruk": 8111,
      "misalkan": 8112,
      "mahakarya": 8113,
      "penuaan": 8114,
      "kakakmu": 8115,
      "roller": 8116,
      "pencarian": 8117,
      "spesialisasi": 8118,
      "Agung": 8119,
      "persediaan": 8120,
      "Olwen": 8121,
      "Hijau": 8122,
      "mengkilap": 8123,
      "calon": 8124,
      "neuro": 8125,
      "tampilannya": 8126,
      "oksida": 8127,
      "toilet": 8128,
      "anugerah": 8129,
      "Identitas": 8130,
      "Flora": 8131,
      "diplomasi": 8132,
      "elektronik": 8133,
      "Botswana": 8134,
      "Situasi": 8135,
      "meniru": 8136,
      "konsultasi": 8137,
      "reptil": 8138,
      "mengikutinya": 8139,
      "dunianya": 8140,
      "Jones": 8141,
      "diwariskan": 8142,
      "siliasi": 8143,
      "Akibat": 8144,
      "ketinggian": 8145,
      "Cre": 8146,
      "DR": 8147,
      "Dingin": 8148,
      "Eco": 8149,
      "Gen": 8150,
      "Garis": 8151,
      "Ham": 8152,
      "High": 8153,
      "Ibarat": 8154,
      "Lap": 8155,
      "NT": 8156,
      "Reg": 8157,
      "Rain": 8158,
      "Stor": 8159,
      "Smi": 8160,
      "Trak": 8161,
      "Yer": 8162,
      "Ze": 8163,
      "bentang": 8164,
      "cong": 8165,
      "gmen": 8166,
      "gakan": 8167,
      "hannya": 8168,
      "jib": 8169,
      "manakah": 8170,
      "ogi": 8171,
      "quar": 8172,
      "spi": 8173,
      "tch": 8174,
      "yet": 8175,
      "enyak": 8176,
      "angkatan": 8177,
      "atorium": 8178,
      "embatan": 8179,
      "menda": 8180,
      "sepi": 8181,
      "secepat": 8182,
      "dijalan": 8183,
      "amik": 8184,
      "tukan": 8185,
      "bersabar": 8186,
      "berlabel": 8187,
      "bertahap": 8188,
      "berkomitmen": 8189,
      "berguling": 8190,
      "titusi": 8191,
      "membent": 8192,
      "memanggang": 8193,
      "elompok": 8194,
      "bian": 8195,
      "mengoper": 8196,
      "tertua": 8197,
      "terjun": 8198,
      "arium": 8199,
      "Ana": 8200,
      "Antar": 8201,
      "sut": 8202,
      "ire": 8203,
      "asial": 8204,
      "melah": 8205,
      "ish": 8206,
      "sepertimu": 8207,
      "eker": 8208,
      "kinerja": 8209,
      "polos": 8210,
      "Sedangkan": 8211,
      "pengacara": 8212,
      "Dani": 8213,
      "pembersihan": 8214,
      "olasi": 8215,
      "kembang": 8216,
      "memperingatkan": 8217,
      "try": 8218,
      "nyenyak": 8219,
      "ippy": 8220,
      "lansia": 8221,
      "amping": 8222,
      "Sekelompok": 8223,
      "ayanan": 8224,
      "lembaga": 8225,
      "lembaran": 8226,
      "ciuman": 8227,
      "Betul": 8228,
      "lop": 8229,
      "berhitung": 8230,
      "betina": 8231,
      "mengadopsi": 8232,
      "mengabadikan": 8233,
      "Belak": 8234,
      "empuk": 8235,
      "sahabatku": 8236,
      "unggul": 8237,
      "child": 8238,
      "timbul": 8239,
      "intervensi": 8240,
      "uleni": 8241,
      "inspiratif": 8242,
      "surut": 8243,
      "Ahh": 8244,
      "figur": 8245,
      "dokteran": 8246,
      "Kupu": 8247,
      "leskan": 8248,
      "nampan": 8249,
      "mengancam": 8250,
      "berpegang": 8251,
      "organik": 8252,
      "Kendaraan": 8253,
      "rastruktur": 8254,
      "miskin": 8255,
      "Musim": 8256,
      "Museum": 8257,
      "menyambutnya": 8258,
      "stabilitas": 8259,
      "lelaki": 8260,
      "ketidakadilan": 8261,
      "Momma": 8262,
      "melemparkan": 8263,
      "Pelatih": 8264,
      "sebelahnya": 8265,
      "Queen": 8266,
      "Gambar": 8267,
      "infrastruktur": 8268,
      "selarasan": 8269,
      "menghadapinya": 8270,
      "bersebelahan": 8271,
      "dihiasi": 8272,
      "Taiwan": 8273,
      "tembakau": 8274,
      "mendebarkan": 8275,
      "prihatin": 8276,
      "Dengarkan": 8277,
      "Stuart": 8278,
      "Paws": 8279,
      "valuasi": 8280,
      "navigasi": 8281,
      "karenanya": 8282,
      "penyelesaian": 8283,
      "Snuggles": 8284,
      "usalem": 8285,
      "Rainbow": 8286,
      "Traktor": 8287,
      "Yerusalem": 8288,
      "membentak": 8289,
      "Cam": 8290,
      "Hon": 8291,
      "Kira": 8292,
      "Nia": 8293,
      "Putri": 8294,
      "Sir": 8295,
      "Sna": 8296,
      "Sisi": 8297,
      "Tip": 8298,
      "Vo": 8299,
      "cro": 8300,
      "etik": 8301,
      "ever": 8302,
      "ft": 8303,
      "firaun": 8304,
      "gini": 8305,
      "habiskan": 8306,
      "plat": 8307,
      "that": 8308,
      "uap": 8309,
      "wamu": 8310,
      "’.": 8311,
      "enan": 8312,
      "enya": 8313,
      "sepasang": 8314,
      "unit": 8315,
      "dikem": 8316,
      "digambar": 8317,
      "ditangani": 8318,
      "disediakan": 8319,
      "berw": 8320,
      "berikut": 8321,
      "bervariasi": 8322,
      "berbunyi": 8323,
      "aspadai": 8324,
      "tiada": 8325,
      "kadal": 8326,
      "eli": 8327,
      "keberada": 8328,
      "keselarasan": 8329,
      "meringan": 8330,
      "tera": 8331,
      "terpan": 8332,
      "lihan": 8333,
      "bee": 8334,
      "onc": 8335,
      "imperialisme": 8336,
      "wajib": 8337,
      "melelah": 8338,
      "istri": 8339,
      "umahan": 8340,
      "baring": 8341,
      "mencel": 8342,
      "kinan": 8343,
      "kelapa": 8344,
      "kelelawar": 8345,
      "bening": 8346,
      "seluncur": 8347,
      "pakkan": 8348,
      "galaksi": 8349,
      "pengakuan": 8350,
      "pengemudi": 8351,
      "pemili": 8352,
      "menjer": 8353,
      "olanya": 8354,
      "olonisasi": 8355,
      "memberdayakan": 8356,
      "Kepulau": 8357,
      "sehatnya": 8358,
      "osiasikan": 8359,
      "modal": 8360,
      "perasaanku": 8361,
      "derhan": 8362,
      "bersihkan": 8363,
      "logis": 8364,
      "food": 8365,
      "solusinya": 8366,
      "tangki": 8367,
      "sinte": 8368,
      "otakmu": 8369,
      "ekspek": 8370,
      "pesat": 8371,
      "contohnya": 8372,
      "mengembang": 8373,
      "dikasi": 8374,
      "menggosok": 8375,
      "nasib": 8376,
      "penyusun": 8377,
      "Petugas": 8378,
      "kacau": 8379,
      "197": 8380,
      "199": 8381,
      "meledak": 8382,
      "entangkan": 8383,
      "menanganinya": 8384,
      "tambang": 8385,
      "rence": 8386,
      "Kenya": 8387,
      "krisis": 8388,
      "Laos": 8389,
      "memandangi": 8390,
      "pemulihan": 8391,
      "estinasi": 8392,
      "lengkapi": 8393,
      "damping": 8394,
      "prestasi": 8395,
      "Book": 8396,
      "bangkitkan": 8397,
      "chool": 8398,
      "brilian": 8399,
      "gores": 8400,
      "gigitan": 8401,
      "raft": 8402,
      "Tortoi": 8403,
      "meriah": 8404,
      "Gurunya": 8405,
      "osotan": 8406,
      "rekomendasi": 8407,
      "Keterampilan": 8408,
      "Paul": 8409,
      "learning": 8410,
      "Penguin": 8411,
      "Nikki": 8412,
      "Hassan": 8413,
      "Teknik": 8414,
      "Cotton": 8415,
      "Friendly": 8416,
      "dipatuhi": 8417,
      "Umum": 8418,
      "Mindies": 8419,
      "bergema": 8420,
      "quare": 8421,
      "Snail": 8422,
      "Sisilia": 8423,
      "meringankan": 8424,
      "melelahkan": 8425,
      "pemilikan": 8426,
      "Kepulauan": 8427,
      "Tortoise": 8428,
      "Amy": 8429,
      "Agen": 8430,
      "Bing": 8431,
      "Cap": 8432,
      "ED": 8433,
      "HI": 8434,
      "Hatinya": 8435,
      "Isa": 8436,
      "Jung": 8437,
      "Just": 8438,
      "Kre": 8439,
      "Lem": 8440,
      "Lama": 8441,
      "Lima": 8442,
      "Masih": 8443,
      "Nana": 8444,
      "Op": 8445,
      "Os": 8446,
      "ST": 8447,
      "Sw": 8448,
      "Sur": 8449,
      "Spor": 8450,
      "SEM": 8451,
      "UA": 8452,
      "geng": 8453,
      "gaku": 8454,
      "gong": 8455,
      "ipu": 8456,
      "king": 8457,
      "kentang": 8458,
      "rent": 8459,
      "saksi": 8460,
      "taruh": 8461,
      "ence": 8462,
      "induk": 8463,
      "menempu": 8464,
      "sekuat": 8465,
      "dituju": 8466,
      "dijual": 8467,
      "alis": 8468,
      "amah": 8469,
      "ture": 8470,
      "bergum": 8471,
      "berinvestasi": 8472,
      "berspesialisasi": 8473,
      "time": 8474,
      "kaus": 8475,
      "memi": 8476,
      "membangkitkan": 8477,
      "bubuk": 8478,
      "kebis": 8479,
      "keberhasil": 8480,
      "ketiganya": 8481,
      "aple": 8482,
      "apannya": 8483,
      "mengharga": 8484,
      "terlatih": 8485,
      "tertiup": 8486,
      "tergores": 8487,
      "sachu": 8488,
      "gabungan": 8489,
      "untukkan": 8490,
      "onis": 8491,
      "irkan": 8492,
      "etan": 8493,
      "muk": 8494,
      "mual": 8495,
      "muara": 8496,
      "karet": 8497,
      "karangan": 8498,
      "tabung": 8499,
      "keran": 8500,
      "dalaman": 8501,
      "dirian": 8502,
      "mencem": 8503,
      "estarian": 8504,
      "def": 8505,
      "egan": 8506,
      "kecer": 8507,
      "pengukuran": 8508,
      "rumor": 8509,
      "memberes": 8510,
      "Key": 8511,
      "Keamanan": 8512,
      "ward": 8513,
      "tren": 8514,
      "wakilan": 8515,
      "kencan": 8516,
      "serpi": 8517,
      "kalender": 8518,
      "anggo": 8519,
      "keluarkan": 8520,
      "keluargamu": 8521,
      "tos": 8522,
      "langka": 8523,
      "Berikut": 8524,
      "terhindar": 8525,
      "bundar": 8526,
      "lemon": 8527,
      "balapan": 8528,
      "salinan": 8529,
      "bos": 8530,
      "mont": 8531,
      "Bepergian": 8532,
      "gemer": 8533,
      "petensi": 8534,
      "Harri": 8535,
      "otakku": 8536,
      "fokuskan": 8537,
      "memungkinkannya": 8538,
      "membelinya": 8539,
      "Mediter": 8540,
      "terbaiknya": 8541,
      "diperuntukkan": 8542,
      "Massachu": 8543,
      "Ahmed": 8544,
      "ponen": 8545,
      "Biar": 8546,
      "andy": 8547,
      "kamus": 8548,
      "kampanye": 8549,
      "penyer": 8550,
      "keberuntungan": 8551,
      "Kulit": 8552,
      "politisi": 8553,
      "hire": 8554,
      "cuacanya": 8555,
      "Martin": 8556,
      "desainnya": 8557,
      "kebutuhannya": 8558,
      "letakkan": 8559,
      "beruangnya": 8560,
      "disiapkan": 8561,
      "lokakarya": 8562,
      "serigala": 8563,
      "jaraknya": 8564,
      "keinginannya": 8565,
      "larut": 8566,
      "tegas": 8567,
      "setts": 8568,
      "mengasuh": 8569,
      "pengujian": 8570,
      "stat": 8571,
      "status": 8572,
      "histor": 8573,
      "lengket": 8574,
      "pinggang": 8575,
      "menempelkannya": 8576,
      "meminumnya": 8577,
      "Asli": 8578,
      "EMDR": 8579,
      "Warna": 8580,
      "Tumbuhan": 8581,
      "Socio": 8582,
      "selaras": 8583,
      "Periode": 8584,
      "Sparky": 8585,
      "terpencil": 8586,
      "bengkel": 8587,
      "apartemen": 8588,
      "Saskat": 8589,
      "realistis": 8590,
      "intuisi": 8591,
      "CBT": 8592,
      "kemiskinan": 8593,
      "agresif": 8594,
      "multikultural": 8595,
      "Saint": 8596,
      "aktivis": 8597,
      "Cyberville": 8598,
      "Athena": 8599,
      "urbanisasi": 8600,
      "kombinasi": 8601,
      "pengelolaan": 8602,
      "menyegarkan": 8603,
      "bagiku": 8604,
      "spidol": 8605,
      "berwenang": 8606,
      "ekspektasi": 8607,
      "Cottontail": 8608,
      "rentan": 8609,
      "menempuh": 8610,
      "kebisingan": 8611,
      "menghargainya": 8612,
      "Mediterania": 8613,
      "Massachusetts": 8614,
      "AM": 8615,
      "Aman": 8616,
      "Amin": 8617,
      "BB": 8618,
      "BD": 8619,
      "But": 8620,
      "Can": 8621,
      "Dood": 8622,
      "Glim": 8623,
      "Jender": 8624,
      "Lis": 8625,
      "Sin": 8626,
      "Shar": 8627,
      "Sto": 8628,
      "Square": 8629,
      "Val": 8630,
      "Winn": 8631,
      "Wonder": 8632,
      "barisan": 8633,
      "chewan": 8634,
      "destinasi": 8635,
      "how": 8636,
      "hadapan": 8637,
      "pli": 8638,
      "rindu": 8639,
      "umer": 8640,
      "uji": 8641,
      "atmos": 8642,
      "ment": 8643,
      "mendal": 8644,
      "untuhan": 8645,
      "dil": 8646,
      "diber": 8647,
      "ditan": 8648,
      "dipertimbangkan": 8649,
      "dibaca": 8650,
      "dibicarakan": 8651,
      "didengarkan": 8652,
      "dioksida": 8653,
      "amati": 8654,
      "tula": 8655,
      "berjaga": 8656,
      "bercan": 8657,
      "berambut": 8658,
      "bersaing": 8659,
      "mematu": 8660,
      "membolak": 8661,
      "perban": 8662,
      "perannya": 8663,
      "perosotan": 8664,
      "keempat": 8665,
      "kepemilikan": 8666,
      "apura": 8667,
      "mengayun": 8668,
      "mengolok": 8669,
      "oratif": 8670,
      "meregangkan": 8671,
      "ikmah": 8672,
      "terlambat": 8673,
      "terukir": 8674,
      "jajan": 8675,
      "licin": 8676,
      "giving": 8677,
      "ilm": 8678,
      "iro": 8679,
      "irama": 8680,
      "isolasi": 8681,
      "etrik": 8682,
      "halo": 8683,
      "sensor": 8684,
      "kelola": 8685,
      "Indu": 8686,
      "pengganti": 8687,
      "pengurangan": 8688,
      "pemenang": 8689,
      "utamanya": 8690,
      "menjauhi": 8691,
      "Suku": 8692,
      "tahil": 8693,
      "traktor": 8694,
      "kenang": 8695,
      "republik": 8696,
      "sertakan": 8697,
      "komponen": 8698,
      "lanjutan": 8699,
      "arantula": 8700,
      "tow": 8701,
      "topeng": 8702,
      "tebing": 8703,
      "alaminya": 8704,
      "etahui": 8705,
      "Mengen": 8706,
      "Mengetahui": 8707,
      "Bersemangat": 8708,
      "protein": 8709,
      "lisan": 8710,
      "sisik": 8711,
      "bunganya": 8712,
      "rupa": 8713,
      "sikat": 8714,
      "soli": 8715,
      "sosok": 8716,
      "memperhatikannya": 8717,
      "oton": 8718,
      "audi": 8719,
      "Beli": 8720,
      "sosialisasi": 8721,
      "hormatan": 8722,
      "Menya": 8723,
      "unggulan": 8724,
      "fokuslah": 8725,
      "hoki": 8726,
      "pemimpinnya": 8727,
      "pastian": 8728,
      "South": 8729,
      "culkan": 8730,
      "memaksakan": 8731,
      "sisir": 8732,
      "menguraikan": 8733,
      "bolanya": 8734,
      "mengepakkan": 8735,
      "pangeran": 8736,
      "landasan": 8737,
      "lesbian": 8738,
      "Mary": 8739,
      "tish": 8740,
      "ople": 8741,
      "their": 8742,
      "dinasti": 8743,
      "Carly": 8744,
      "Carrot": 8745,
      "196": 8746,
      "mengirimkannya": 8747,
      "bakatnya": 8748,
      "bitkan": 8749,
      "karakteristik": 8750,
      "lektif": 8751,
      "nikotin": 8752,
      "Katya": 8753,
      "Finn": 8754,
      "krip": 8755,
      "kurangnya": 8756,
      "pilihlah": 8757,
      "fungsional": 8758,
      "mahasiswa": 8759,
      "tombak": 8760,
      "Tanyakan": 8761,
      "Coun": 8762,
      "ditemuinya": 8763,
      "Fifi": 8764,
      "Psikolog": 8765,
      "pistol": 8766,
      "habitatnya": 8767,
      "lower": 8768,
      "Musik": 8769,
      "Cathy": 8770,
      "Patty": 8771,
      "artistik": 8772,
      "oritaskan": 8773,
      "World": 8774,
      "ADD": 8775,
      "Snow": 8776,
      "Mainan": 8777,
      "melengkapi": 8778,
      "parametrik": 8779,
      "federasi": 8780,
      "meleleh": 8781,
      "Singapura": 8782,
      "memunculkan": 8783,
      "OLO": 8784,
      "menyelidiki": 8785,
      "Thanksgiving": 8786,
      "penanggulangan": 8787,
      "menghangatkan": 8788,
      "Akibatnya": 8789,
      "dijalankan": 8790,
      "Friendlyville": 8791,
      "bergumul": 8792,
      "Saskatchewan": 8793,
      "Doodle": 8794,
      "Glimmer": 8795,
      "Jenderal": 8796,
      "atmosfer": 8797,
      "mendalami": 8798,
      "bercanda": 8799,
      "Astr": 8800,
      "Cher": 8801,
      "Club": 8802,
      "Colosseum": 8803,
      "Dimana": 8804,
      "Kes": 8805,
      "Lego": 8806,
      "Pin": 8807,
      "Pener": 8808,
      "Rencana": 8809,
      "Spo": 8810,
      "Tain": 8811,
      "Warisan": 8812,
      "West": 8813,
      "adan": 8814,
      "dungan": 8815,
      "mong": 8816,
      "mampir": 8817,
      "some": 8818,
      "shire": 8819,
      "taku": 8820,
      "wala": 8821,
      "when": 8822,
      "angsa": 8823,
      "aro": 8824,
      "atlet": 8825,
      "inap": 8826,
      "intimidasi": 8827,
      "embal": 8828,
      "sebaga": 8829,
      "dipa": 8830,
      "ditanya": 8831,
      "dirasa": 8832,
      "dipakai": 8833,
      "ditangkap": 8834,
      "dilengkapi": 8835,
      "bergaya": 8836,
      "tiban": 8837,
      "kaisaran": 8838,
      "membanding": 8839,
      "pertanya": 8840,
      "peregangan": 8841,
      "peraturannya": 8842,
      "butik": 8843,
      "kedatangan": 8844,
      "keanekaragaman": 8845,
      "kekaisaran": 8846,
      "itan": 8847,
      "oratorium": 8848,
      "gimana": 8849,
      "Bobo": 8850,
      "ajar": 8851,
      "ajarkan": 8852,
      "ekow": 8853,
      "puasa": 8854,
      "senter": 8855,
      "penasihat": 8856,
      "keriting": 8857,
      "menyor": 8858,
      "iau": 8859,
      "esok": 8860,
      "depannya": 8861,
      "banget": 8862,
      "Integ": 8863,
      "pemalu": 8864,
      "Bayi": 8865,
      "rou": 8866,
      "mempeker": 8867,
      "representasi": 8868,
      "leher": 8869,
      "agen": 8870,
      "menyepak": 8871,
      "dukun": 8872,
      "susun": 8873,
      "Seluruh": 8874,
      "Berlin": 8875,
      "gerbang": 8876,
      "akibatkan": 8877,
      "sekop": 8878,
      "maknanya": 8879,
      "pinjaman": 8880,
      "strak": 8881,
      "berlapis": 8882,
      "bakteri": 8883,
      "ketertiban": 8884,
      "upah": 8885,
      "Mao": 8886,
      "Membantu": 8887,
      "cokkan": 8888,
      "Alkimia": 8889,
      "menyebutkannya": 8890,
      "mengelolanya": 8891,
      "teling": 8892,
      "teladan": 8893,
      "menawar": 8894,
      "kehadi": 8895,
      "Ark": 8896,
      "pondok": 8897,
      "Proyek": 8898,
      "Pedesaan": 8899,
      "unty": 8900,
      "March": 8901,
      "melebih": 8902,
      "Paskah": 8903,
      "berdedikasi": 8904,
      "kamarnya": 8905,
      "Poli": 8906,
      "Konstan": 8907,
      "Konfederasi": 8908,
      "pilihannya": 8909,
      "kaitkan": 8910,
      "kebunan": 8911,
      "mendekorasi": 8912,
      "sejahtera": 8913,
      "pelancong": 8914,
      "menghentikannya": 8915,
      "sulaman": 8916,
      "getaran": 8917,
      "laboratorium": 8918,
      "Univer": 8919,
      "mendes": 8920,
      "menghiasi": 8921,
      "memotivasi": 8922,
      "posting": 8923,
      "Paci": 8924,
      "Whisper": 8925,
      "industrialisasi": 8926,
      "Akankah": 8927,
      "penyebabnya": 8928,
      "Pustak": 8929,
      "Healthville": 8930,
      "Picc": 8931,
      "bersamanya": 8932,
      "hutannya": 8933,
      "melaporkan": 8934,
      "Francisco": 8935,
      "stroberi": 8936,
      "cakrawala": 8937,
      "menggelitik": 8938,
      "Letaknya": 8939,
      "Kutub": 8940,
      "melahirkan": 8941,
      "Belakangan": 8942,
      "keberhasilan": 8943,
      "town": 8944,
      "sebagainya": 8945,
      "membandingkannya": 8946,
      "pertanyaannya": 8947,
      "ekowisata": 8948,
      "mempekerjakan": 8949,
      "Konstantin": 8950,
      "Agar": 8951,
      "Cal": 8952,
      "Cammy": 8953,
      "Cogni": 8954,
      "Dove": 8955,
      "Er": 8956,
      "Gran": 8957,
      "Gedung": 8958,
      "GIS": 8959,
      "Hamp": 8960,
      "Kiko": 8961,
      "Latihan": 8962,
      "Layanan": 8963,
      "MP": 8964,
      "Madi": 8965,
      "Mimpi": 8966,
      "Nuno": 8967,
      "Ori": 8968,
      "Pela": 8969,
      "Rolly": 8970,
      "She": 8971,
      "Ting": 8972,
      "Tre": 8973,
      "Trump": 8974,
      "bbles": 8975,
      "ct": 8976,
      "corak": 8977,
      "gs": 8978,
      "hay": 8979,
      "kiman": 8980,
      "pegang": 8981,
      "tung": 8982,
      "vali": 8983,
      "vate": 8984,
      "wew": 8985,
      "walaupun": 8986,
      "’?”": 8987,
      "akting": 8988,
      "sebidang": 8989,
      "under": 8990,
      "dipotong": 8991,
      "disip": 8992,
      "diminum": 8993,
      "didirikan": 8994,
      "tulan": 8995,
      "bertugas": 8996,
      "berenergi": 8997,
      "berpengaruh": 8998,
      "berumur": 8999,
      "berbasis": 9000,
      "berbaring": 9001,
      "day": 9002,
      "membahagi": 9003,
      "perkebunan": 9004,
      "butan": 9005,
      "enggar": 9006,
      "mengakibatkan": 9007,
      "meruju": 9008,
      "tertu": 9009,
      "tersent": 9010,
      "orangnya": 9011,
      "untukku": 9012,
      "suaian": 9013,
      "apainya": 9014,
      "onia": 9015,
      "ekologi": 9016,
      "rien": 9017,
      "riak": 9018,
      "akuarium": 9019,
      "aliansi": 9020,
      "koli": 9021,
      "penipu": 9022,
      "mencinta": 9023,
      "mencapainya": 9024,
      "kelok": 9025,
      "benci": 9026,
      "apian": 9027,
      "ometri": 9028,
      "Seberapa": 9029,
      "Indi": 9030,
      "Indon": 9031,
      "pembersih": 9032,
      "ragi": 9033,
      "utkan": 9034,
      "Ketiga": 9035,
      "warganya": 9036,
      "mendengarkannya": 9037,
      "jaket": 9038,
      "refleksi": 9039,
      "ipeg": 9040,
      "kalanya": 9041,
      "total": 9042,
      "awk": 9043,
      "awari": 9044,
      "kuatnya": 9045,
      "cair": 9046,
      "caca": 9047,
      "Beri": 9048,
      "Berhati": 9049,
      "gerhana": 9050,
      "nihkan": 9051,
      "percayalah": 9052,
      "seluruhnya": 9053,
      "pasca": 9054,
      "loitasi": 9055,
      "semangatnya": 9056,
      "Penjelajah": 9057,
      "Penjaga": 9058,
      "minoritas": 9059,
      "Menara": 9060,
      "mengajarimu": 9061,
      "beraniannya": 9062,
      "mustahil": 9063,
      "bolehkah": 9064,
      "lanjutkan": 9065,
      "cking": 9066,
      "mengganggun": 9067,
      "genangan": 9068,
      "mengambang": 9069,
      "kasat": 9070,
      "mengeras": 9071,
      "parkir": 9072,
      "Mark": 9073,
      "mencocokkan": 9074,
      "berkelok": 9075,
      "dihuni": 9076,
      "runcing": 9077,
      "akibatnya": 9078,
      "cayainya": 9079,
      "fiksi": 9080,
      "ketidaknyaman": 9081,
      "Wilayah": 9082,
      "sampingnya": 9083,
      "Catatan": 9084,
      "Hispanik": 9085,
      "menyuruhku": 9086,
      "ciptaannya": 9087,
      "penjual": 9088,
      "penderitaan": 9089,
      "mengoleksi": 9090,
      "menyetujuinya": 9091,
      "Toronto": 9092,
      "berisik": 9093,
      "reruntuhan": 9094,
      "Maine": 9095,
      "Chef": 9096,
      "melengkung": 9097,
      "Superman": 9098,
      "polanya": 9099,
      "cakarnya": 9100,
      "menembakkan": 9101,
      "Bruno": 9102,
      "odelan": 9103,
      "illage": 9104,
      "Vermont": 9105,
      "Historyville": 9106,
      "dibayar": 9107,
      "rekonsiliasi": 9108,
      "Singkatnya": 9109,
      "biksu": 9110,
      "terkubur": 9111,
      "children": 9112,
      "menjernihkan": 9113,
      "mencemari": 9114,
      "Winnipeg": 9115,
      "Belize": 9116,
      "OLOGI": 9117,
      "menyepakati": 9118,
      "Arktik": 9119,
      "Pustakawan": 9120,
      "Hampshire": 9121,
[...]
